{"byte_pairs": {"__eow": 8000, "__sow": 8001, "\u0627": 8002, "\u06cc": 8003, "\u0646": 8004, "\u0631": 8005, "\u0645": 8006, "\u062f": 8007, "\u062a": 8008, "\u0628": 8009, "\u0648": 8010, "\u0633": 8011, "\u0634": 8012, "\u0644": 8013, "\u0647": 8014, "\u06a9": 8015, "\u0641": 8016, "\u0632": 8017, "\u062e": 8018, "\u06af": 8019, "\u0639": 8020, "\u0627\u0646": 8021, "\u0642": 8022, "\u062c": 8023, "\u062d": 8024, "\u0633\u062a": 8025, "\u067e": 8026, "\u0646\u062f": 8027, "\u0635": 8028, "\u0627\u0644": 8029, "\u0627\u0631": 8030, "\u0637": 8031, "\u0622": 8032, "\u0627\u06cc": 8033, "\u0631\u0627": 8034, "\u063a": 8035, "\u0631\u06cc": 8036, "\u0646\u06cc": 8037, "\u0648\u0627": 8038, "\u0646\u0627": 8039, "\u06cc\u062f": 8040, "\u0628\u0627": 8041, "\u062f\u0627": 8042, "\u0628\u0631": 8043, "\u0686": 8044, "\u0630": 8045, "\u062f\u06cc": 8046, "\u06cc\u0627": 8047, "\u0645\u0627": 8048, "\u0636": 8049, "\u0644\u0627": 8050, "\u0647\u0627": 8051, "\u0627\u0645": 8052, "\u06cc\u0646": 8053, "\u06cc\u0645": 8054, "\u0631\u062f": 8055, "\u0631\u0648": 8056, "\u0628\u06cc": 8057, "\u0648\u0631": 8058, "\u0645\u06cc": 8059, "\u0634\u0627": 8060, "\u0627\u0628": 8061, "\u062a\u06cc": 8062, "\u0627\u062f": 8063, "\u0627\u0633": 8064, "\u06cc\u0631": 8065, "\u062a\u0627": 8066, "\u0631\u0645": 8067, "\u06a9\u0627": 8068, "\u0627\u0632": 8069, "\u06cc\u06cc": 8070, "\u0641\u0631": 8071, "\u0631\u0633": 8072, "\u062f\u0631": 8073, "\u0648\u06cc": 8074, "\u0646\u0634": 8075, "\u062f\u0647": 8076, "\u0627\u0647": 8077, "\u062b": 8078, "\u0633\u0627": 8079, "\u0641\u062a": 8080, "\u062f\u0645": 8081, "\u0646\u06af": 8082, "\u06cc\u0633": 8083, "\u0644\u06cc": 8084, "\u0627\u0641": 8085, "\u0648\u062f": 8086, "\u062a\u0631": 8087, "\u0627\u0646\u06cc": 8088, "\u062e\u0648": 8089, "\u0631\u0627\u0646": 8090, "\u0645\u0631": 8091, "\u0631\u0634": 8092, "\u0645\u0646": 8093, "\u06af\u0631": 8094, "\u0646\u0645": 8095, "\u0627\u062a": 8096, "\u0638": 8097, "\u0627\u0634": 8098, "\u0648\u0646": 8099, "\u0632\u06cc": 8100, "\u0646\u0647": 8101, "\u06af\u0627": 8102, "\u0631\u0646": 8103, "\u0634\u06cc": 8104, "\u062f\u0646": 8105, "\u0632\u0627": 8106, "\u0627\u06cc\u06cc": 8107, "\u0634\u0627\u0646": 8108, "\u0631\u062a": 8109, "\u0633\u06cc": 8110, "\u06cc\u0633\u062a": 8111, "\u062f\u0648": 8112, "\u06cc\u0634": 8113, "\u062a\u0646": 8114, "\u0634\u062a": 8115, "\u0646\u0648": 8116, "\u0645\u062a": 8117, "\u0631\u0647": 8118, "\u0645\u0633": 8119, "\u0646\u062a": 8120, "\u0646\u0633": 8121, "\u062a\u0645": 8122, "\u0648\u0634": 8123, "\u0631\u0633\u062a": 8124, "\u0627\u0646\u062f": 8125, "\u0633\u0631": 8126, "\u0628\u062f": 8127, "\u0644\u0645": 8128, "\u0628\u0646": 8129, "\u0645\u0627\u0646": 8130, "\u0627\u0648": 8131, "\u06cc\u062a": 8132, "\u0645\u0648": 8133, "\u0645\u0634": 8134, "\u062e\u062a": 8135, "\u0641\u0627": 8136, "\u062c\u0627": 8137, "\u062e\u0627": 8138, "\u0627\u0631\u06cc": 8139, "\u0647\u0631": 8140, "\u0627\u0633\u062a": 8141, "\u06a9\u0646": 8142, "\u067e\u0631": 8143, "\u06a9\u0631": 8144, "\u0648\u0644": 8145, "\u0647\u06cc": 8146, "\u0642\u0627": 8147, "\u0639\u0627": 8148, "\u0645\u0639": 8149, "\u0628\u0648": 8150, "\u062a\u0647": 8151, "\u0646\u0646": 8152, "\u062f\u0627\u0646": 8153, "\u0642\u06cc": 8154, "\u06cc\u0628": 8155, "\u0648\u0627\u0646": 8156, "\u062f\u0633": 8157, "\u0627\u06a9": 8158, "\u0631\u0628": 8159, "\u0648\u0632": 8160, "\u06cc\u0632": 8161, "\u0648\u0633": 8162, "\u0646\u0628": 8163, "\u0644\u0648": 8164, "\u0632\u0646": 8165, "\u0634\u06a9": 8166, "\u06cc\u0627\u0646": 8167, "\u06cc\u0644": 8168, "\u0647\u0645": 8169, "\u0627\u0642": 8170, "\u0631\u06af": 8171, "\u0627\u0639": 8172, "\u0633\u0648": 8173, "\u062e\u0631": 8174, "\u0627\u0646\u0634": 8175, "\u06af\u06cc": 8176, "\u062f\u0634": 8177, "\u062f\u0633\u062a": 8178, "\u06a9\u06cc": 8179, "\u0628\u0633": 8180, "\u062a\u0634": 8181, "\u0628\u0634": 8182, "\u0631\u0641": 8183, "\u0628\u0647": 8184, "\u0628\u062a": 8185, "\u0645\u0647": 8186, "\u067e\u06cc": 8187, "\u0634\u0645": 8188, "\u0627\u062d": 8189, "\u0644\u062a": 8190, "\u067e\u0627": 8191, "\u0646\u0633\u062a": 8192, "\u0634\u0646": 8193, "\u0627\u062e": 8194, "\u0645\u062f": 8195, "\u0644\u0647": 8196, "\u062f\u0627\u0631": 8197, "\u0632\u062f": 8198, "\u0633\u062a\u0627": 8199, "\u062f\u062a": 8200, "\u0627\u0644\u0627": 8201, "\u062c\u0648": 8202, "\u062e\u0648\u0627": 8203, "\u0628\u062e": 8204, "\u0641\u06cc": 8205, "\u0639\u06cc": 8206, "\u0646\u062f\u06cc": 8207, "\u0646\u0646\u062f": 8208, "\u0632\u0645": 8209, "\u062a\u0627\u0646": 8210, "\u0646\u062c": 8211, "\u06af\u0648": 8212, "\u0627\u0646\u0645": 8213, "\u06a9\u0648": 8214, "\u0633\u062a\u06cc": 8215, "\u0648\u0627\u0631": 8216, "\u0637\u0627": 8217, "\u062a\u0648": 8218, "\u0647\u0646": 8219, "\u062d\u0627": 8220, "\u06cc\u0648": 8221, "\u0645\u0633\u062a": 8222, "\u0631\u0646\u062f": 8223, "\u0631\u06a9": 8224, "\u0648\u0628": 8225, "\u0644\u0634": 8226, "\u0633\u0646": 8227, "\u0644\u0633": 8228, "\u06cc\u06a9": 8229, "\u0645\u0644": 8230, "\u0631\u0632": 8231, "\u0644\u0628": 8232, "\u0648\u0645": 8233, "\u0646\u062f\u0627": 8234, "\u0628\u0627\u0646": 8235, "\u0627\u062c": 8236, "\u062f\u0644": 8237, "\u0646\u0627\u0646": 8238, "\u0633\u0645": 8239, "\u0627\u0644\u0645": 8240, "\u0648\u0627\u0644": 8241, "\u06af\u0627\u0646": 8242, "\u0631\u062e": 8243, "\u0627\u0646\u062a": 8244, "\u0634\u0648": 8245, "\u0634\u0631": 8246, "\u06a9\u0634": 8247, "\u0627\u0631\u0627": 8248, "\u0628\u0644": 8249, "\u0642\u0631": 8250, "\u0635\u0627": 8251, "\u0648\u062a": 8252, "\u0647\u0627\u06cc": 8253, "\u0646\u06a9": 8254, "\u062d\u06cc": 8255, "\u0628\u0627\u0632": 8256, "\u06a9\u0645": 8257, "\u0628\u06af": 8258, "\u062d\u0631": 8259, "\u062e\u06cc": 8260, "\u0698": 8261, "\u06cc\u0647": 8262, "\u0647\u0648": 8263, "\u062a\u0633": 8264, "\u0645\u062d": 8265, "\u0646\u062f\u0647": 8266, "\u0631\u06cc\u062f": 8267, "\u06cc\u0641": 8268, "\u0646\u06cc\u0627": 8269, "\u0631\u062f\u0627": 8270, "\u062f\u0646\u062f": 8271, "\u0627\u0646\u0633": 8272, "\u062e\u0634": 8273, "\u06af\u0647": 8274, "\u0633\u0627\u0646": 8275, "\u0632\u0631": 8276, "\u0627\u0646\u0647": 8277, "\u0631\u0627\u06cc": 8278, "\u0644\u0646": 8279, "\u06cc\u0646\u062f": 8280, "\u0644\u06a9": 8281, "\u0627\u0644\u06cc": 8282, "\u062f\u06af": 8283, "\u0632\u0648": 8284, "\u0628\u0633\u062a": 8285, "\u0633\u0628": 8286, "\u0628\u0627\u0631": 8287, "\u0627\u0635": 8288, "\u0627\u0646\u0646": 8289, "\u0639\u0644": 8290, "\u0633\u062a\u0627\u0646": 8291, "\u0647\u0627\u0646": 8292, "\u0627\u0646\u0646\u062f": 8293, "\u0646\u0641": 8294, "\u0646\u0647\u0627": 8295, "\u0639\u0646": 8296, "\u0631\u0622": 8297, "\u0639\u062a": 8298, "\u062a\u0646\u062f": 8299, "\u062c\u0647": 8300, "\u0627\u0645\u06cc": 8301, "\u0639\u0631": 8302, "\u06af\u0634": 8303, "\u06a9\u0627\u0646": 8304, "\u0628\u06a9": 8305, "\u062e\u0644": 8306, "\u0644\u0639": 8307, "\u0648\u0642": 8308, "\u0648\u0641": 8309, "\u0627\u0631\u0645": 8310, "\u0628\u0631\u0627": 8311, "\u0627\u0637": 8312, "\u0637\u0631": 8313, "\u0647\u062f": 8314, "\u0644\u062d": 8315, "\u06a9\u0633": 8316, "\u0648\u0647": 8317, "\u0644\u0642": 8318, "\u0627\u0632\u06cc": 8319, "\u0642\u062f": 8320, "\u0630\u0631": 8321, "\u06af\u0630": 8322, "\u0627\u0646\u0633\u062a": 8323, "\u06cc\u0642": 8324, "\u0645\u0642": 8325, "\u06a9\u0627\u0631": 8326, "\u062d\u0645": 8327, "\u0627\u062f\u06cc": 8328, "\u0646\u0631": 8329, "\u0641\u0631\u0648": 8330, "\u0642\u0644": 8331, "\u0633\u0644": 8332, "\u0648\u0631\u062f": 8333, "\u0627\u0641\u062a": 8334, "\u0644\u0627\u06cc": 8335, "\u0631\u0642": 8336, "\u062a\u0633\u062a": 8337, "\u06af\u0646": 8338, "\u0641\u0634": 8339, "\u0631\u062f\u06cc": 8340, "\u0642\u062a": 8341, "\u0644\u0627\u0646": 8342, "\u0644\u0641": 8343, "\u0628\u0645": 8344, "\u0646\u0642": 8345, "\u063a\u0627": 8346, "\u0648\u0631\u06cc": 8347, "\u06cc\u0627\u0631": 8348, "\u0631\u0647\u0627": 8349, "\u0632\u0646\u062f": 8350, "\u0627\u062e\u062a": 8351, "\u0645\u0631\u062f": 8352, "\u0635\u0631": 8353, "\u0641\u0631\u0627": 8354, "\u0639\u062f": 8355, "\u0641\u0633": 8356, "\u0631\u06cc\u0645": 8357, "\u0634\u0647": 8358, "\u0632\u0627\u0646": 8359, "\u0631\u062c": 8360, "\u062f\u06cc\u062f": 8361, "\u062d\u062a": 8362, "\u06af\u0627\u0647": 8363, "\u0631\u0648\u0627": 8364, "\u0630\u0627": 8365, "\u062c\u0631": 8366, "\u0628\u0646\u062f": 8367, "\u0627\u0631\u0633": 8368, "\u0627\u06cc\u062f": 8369, "\u062c\u0645": 8370, "\u06cc\u062e": 8371, "\u0645\u06a9": 8372, "\u06a9\u0628": 8373, "\u062c\u06cc": 8374, "\u0628\u06cc\u0627": 8375, "\u06a9\u0646\u062f": 8376, "\u0627\u0628\u06cc": 8377, "\u06cc\u062f\u0647": 8378, "\u0627\u0634\u062a": 8379, "\u0646\u062f\u0645": 8380, "\u06cc\u062f\u0646": 8381, "\u06cc\u0631\u06cc": 8382, "\u0644\u0633\u062a": 8383, "\u06af\u0632": 8384, "\u0645\u0645": 8385, "\u0641\u0644": 8386, "\u0645\u0627\u06cc": 8387, "\u06cc\u062f\u06cc": 8388, "\u0634\u062f": 8389, "\u0633\u067e": 8390, "\u06cc\u0631\u0627": 8391, "\u0644\u0627\u0645": 8392, "\u0631\u0648\u06cc": 8393, "\u062a\u062a": 8394, "\u063a\u0631": 8395, "\u06af\u0633": 8396, "\u0631\u0641\u062a": 8397, "\u0639\u0645": 8398, "\u0631\u0648\u0632": 8399, "\u0646\u0627\u06cc": 8400, "\u06af\u0631\u062f": 8401, "\u062f\u06cc\u0645": 8402, "\u0628\u0627\u0644": 8403, "\u06af\u0631\u06cc": 8404, "\u062c\u0646": 8405, "\u0641\u06a9": 8406, "\u0645\u062e": 8407, "\u0648\u062e": 8408, "\u0628\u06cc\u0646": 8409, "\u0648\u0633\u062a": 8410, "\u0631\u0627\u0645": 8411, "\u0648\u06cc\u06cc": 8412, "\u0627\u0646\u06af": 8413, "\u0641\u062a\u0627": 8414, "\u0637\u06cc": 8415, "\u0644\u0644": 8416, "\u062e\u0648\u0631": 8417, "\u0645\u0627\u0631": 8418, "\u0635\u0644": 8419, "\u0631\u0628\u0627": 8420, "\u0634\u06cc\u062f": 8421, "\u0632\u0647": 8422, "\u0627\u0631\u0634": 8423, "\u062d\u0628": 8424, "\u0633\u062a\u0646": 8425, "\u06a9\u0644": 8426, "\u0628\u067e": 8427, "\u0627\u0645\u062a": 8428, "\u0645\u062c": 8429, "\u0639\u0628": 8430, "\u0627\u0631\u062f": 8431, "\u0633\u062a\u0645": 8432, "\u062a\u0642": 8433, "\u0631\u062f\u0646": 8434, "\u0627\u0631\u062a": 8435, "\u0627\u0647\u06cc": 8436, "\u062d\u0633": 8437, "\u062e\u0646": 8438, "\u0646\u0627\u0645": 8439, "\u062a\u0627\u062f": 8440, "\u0627\u06cc\u0646": 8441, "\u0632\u0627\u0631": 8442, "\u0646\u062e": 8443, "\u0628\u0631\u06cc": 8444, "\u0642\u0628": 8445, "\u0631\u06cc\u0646": 8446, "\u0639\u0648": 8447, "\u062a\u0628": 8448, "\u0646\u06af\u0631": 8449, "\u0646\u0639": 8450, "\u0622\u0645": 8451, "\u0647\u0644": 8452, "\u0641\u0631\u06cc": 8453, "\u0635\u06cc": 8454, "\u0646\u06af\u0627": 8455, "\u0646\u06cc\u062f": 8456, "\u0635\u0648": 8457, "\u0642\u0648": 8458, "\u067e\u0648": 8459, "\u0627\u0646\u0627": 8460, "\u0627\u0644\u0634": 8461, "\u06a9\u062a": 8462, "\u0645\u0628": 8463, "\u0647\u0634": 8464, "\u0645\u0646\u062f": 8465, "\u0686\u0646": 8466, "\u0627\u06cc\u0645": 8467, "\u0627\u0644\u062d": 8468, "\u0637\u0644": 8469, "\u0648\u0634\u06cc": 8470, "\u0645\u0632": 8471, "\u0627\u06cc\u062a": 8472, "\u0627\u0631\u0633\u062a": 8473, "\u0627\u0645\u0627": 8474, "\u0646\u06af\u06cc": 8475, "\u0627\u0644\u0639": 8476, "\u0648\u0631\u0627": 8477, "\u0645\u0627\u0644": 8478, "\u0635\u0641": 8479, "\u06cc\u0646\u06cc": 8480, "\u0627\u063a": 8481, "\u0628\u0627\u06cc": 8482, "\u062a\u0631\u06cc": 8483, "\u0633\u0648\u062f": 8484, "\u063a\u0645": 8485, "\u0622\u0648": 8486, "\u0631\u06cc\u0627": 8487, "\u06cc\u062d": 8488, "\u06cc\u062f\u0627": 8489, "\u062d\u0644": 8490, "\u063a\u06cc": 8491, "\u0631\u0645\u0627": 8492, "\u0645\u06af": 8493, "\u0627\u0631\u0627\u0646": 8494, "\u0627\u0648\u0631": 8495, "\u0628\u0631\u0646": 8496, "\u0646\u0627\u0633": 8497, "\u062c\u0644": 8498, "\u0631\u0627\u0641": 8499, "\u0632\u0627\u06cc": 8500, "\u06af\u0627\u0631": 8501, "\u062f\u0631\u06cc": 8502, "\u0633\u0631\u0627": 8503, "\u0627\u0644\u0628": 8504, "\u062c\u0627\u0646": 8505, "\u0633\u06a9": 8506, "\u0635\u062f": 8507, "\u0645\u06cc\u062f": 8508, "\u062a\u06af": 8509, "\u0628\u0628": 8510, "\u0631\u062d": 8511, "\u0635\u0628": 8512, "\u062a\u062f": 8513, "\u062e\u0648\u0627\u0646": 8514, "\u0646\u067e": 8515, "\u062f\u0645\u06cc": 8516, "\u062f\u0627\u0632": 8517, "\u0622\u0646": 8518, "\u0634\u0627\u06cc": 8519, "\u0646\u06cc\u0645": 8520, "\u062f\u0627\u062f": 8521, "\u0633\u062a\u0631": 8522, "\u0622\u0633": 8523, "\u0646\u0634\u0627": 8524, "\u06a9\u0641": 8525, "\u0631\u0627\u0633": 8526, "\u062a\u0627\u0628": 8527, "\u0644\u062e": 8528, "\u0627\u06af": 8529, "\u0686\u0627": 8530, "\u0645\u06cc\u0646": 8531, "\u0628\u0631\u062f": 8532, "\u062f\u0628": 8533, "\u0631\u0648\u0631": 8534, "\u062f\u0631\u0627": 8535, "\u06af\u0644": 8536, "\u062f\u0627\u06cc": 8537, "\u0636\u06cc": 8538, "\u0641\u0648": 8539, "\u062a\u062d": 8540, "\u0627\u0641\u0631": 8541, "\u0631\u0627\u0632": 8542, "\u062a\u06cc\u0645": 8543, "\u0627\u0632\u0627": 8544, "\u0627\u0647\u0627": 8545, "\u062d\u0648": 8546, "\u062a\u0639": 8547, "\u0631\u0633\u0627": 8548, "\u06cc\u0645\u0627": 8549, "\u0646\u062f\u0631": 8550, "\u0631\u0627\u0628": 8551, "\u0627\u0644\u0646": 8552, "\u0641\u0634\u0627": 8553, "\u0631\u062f\u0645": 8554, "\u062c\u0628": 8555, "\u0644\u062f": 8556, "\u067e\u0631\u0633": 8557, "\u0628\u062f\u0627": 8558, "\u06cc\u062f\u0645": 8559, "\u0633\u0641": 8560, "\u0646\u0632": 8561, "\u0628\u0641": 8562, "\u0636\u0627": 8563, "\u0646\u0635": 8564, "\u0628\u0639": 8565, "\u0646\u0628\u0627": 8566, "\u06cc\u0639": 8567, "\u0648\u062e\u062a": 8568, "\u062a\u0631\u0627": 8569, "\u0633\u0646\u062f": 8570, "\u0634\u062a\u06cc": 8571, "\u0627\u0644\u0633": 8572, "\u0637\u0628": 8573, "\u06cc\u0627\u06cc": 8574, "\u062f\u06af\u0627": 8575, "\u0645\u0635": 8576, "\u0641\u06a9\u0646": 8577, "\u067e\u0646": 8578, "\u06a9\u0647": 8579, "\u0641\u062a\u06cc": 8580, "\u0632\u0644": 8581, "\u0627\u0644\u0648": 8582, "\u0647\u062a": 8583, "\u062a\u0648\u0627": 8584, "\u062e\u062f": 8585, "\u062e\u0633": 8586, "\u0646\u0648\u0627": 8587, "\u0686\u06cc": 8588, "\u0644\u062c": 8589, "\u0634\u06cc\u0631": 8590, "\u0636\u0631": 8591, "\u0648\u062f\u06cc": 8592, "\u0645\u063a": 8593, "\u0631\u06cc\u0633": 8594, "\u0641\u0634\u0627\u0646": 8595, "\u062f\u0627\u0645": 8596, "\u062f\u0648\u0627": 8597, "\u067e\u0627\u06cc": 8598, "\u0627\u0628\u0631": 8599, "\u0632\u0628": 8600, "\u0646\u06cc\u0633": 8601, "\u0627\u06cc\u0627": 8602, "\u0628\u062e\u0634": 8603, "\u0648\u062c": 8604, "\u0622\u0631": 8605, "\u0648\u062f\u0645": 8606, "\u0628\u0632": 8607, "\u062e\u0631\u0627": 8608, "\u062a\u0641": 8609, "\u0633\u0627\u06cc": 8610, "\u0627\u0631\u0646": 8611, "\u0645\u0648\u062f": 8612, "\u0632\u06cc\u062f": 8613, "\u06af\u0648\u06cc": 8614, "\u0633\u062e": 8615, "\u0633\u0647": 8616, "\u062c\u062f": 8617, "\u0642\u0635": 8618, "\u0637\u0648": 8619, "\u0645\u0641": 8620, "\u062a\u0644": 8621, "\u0644\u0631": 8622, "\u062d\u062f": 8623, "\u0644\u0627\u0644": 8624, "\u0627\u0644\u062a": 8625, "\u0631\u0648\u0646": 8626, "\u0627\u0631\u0647": 8627, "\u062a\u06a9": 8628, "\u0641\u062a\u0646": 8629, "\u0648\u062d": 8630, "\u0628\u0627\u062f": 8631, "\u0628\u0631\u06af": 8632, "\u06cc\u0627\u0645": 8633, "\u0645\u0646\u0627": 8634, "\u0634\u0646\u0627": 8635, "\u0639\u062c": 8636, "\u06cc\u06cc\u062f": 8637, "\u062e\u0645": 8638, "\u0627\u0632\u0645": 8639, "\u0631\u0633\u06cc": 8640, "\u0632\u0634": 8641, "\u0628\u0647\u0627": 8642, "\u0641\u0632": 8643, "\u0646\u062c\u0627": 8644, "\u06cc\u0628\u0627": 8645, "\u06cc\u0627\u0632": 8646, "\u06af\u0634\u0627": 8647, "\u0634\u0633": 8648, "\u062e\u0627\u0646": 8649, "\u0631\u0646\u06af": 8650, "\u06cc\u0646\u0627": 8651, "\u0631\u0636": 8652, "\u0645\u0644\u0627": 8653, "\u0646\u06cc\u0633\u062a": 8654, "\u0646\u062f\u0634": 8655, "\u06af\u0645": 8656, "\u0627\u062f\u0645": 8657, "\u0647\u0628": 8658, "\u0630\u06cc": 8659, "\u06a9\u062f": 8660, "\u0639\u0642": 8661, "\u0631\u062f\u0627\u0646": 8662, "\u0634\u0633\u062a": 8663, "\u0639\u0634": 8664, "\u0647\u0633": 8665, "\u0627\u0636": 8666, "\u0627\u0632\u062f": 8667, "\u067e\u0631\u0648": 8668, "\u0642\u0647": 8669, "\u062a\u0647\u0627": 8670, "\u0646\u0628\u0631": 8671, "\u0631\u06cc\u0633\u062a": 8672, "\u0627\u06cc\u0634": 8673, "\u062a\u0627\u0631": 8674, "\u0628\u0631\u0648": 8675, "\u0648\u06a9": 8676, "\u06cc\u0646\u0647": 8677, "\u0633\u062f": 8678, "\u062f\u0631\u0648": 8679, "\u0633\u0627\u0631": 8680, "\u063a\u0644": 8681, "\u0648\u0627\u0647": 8682, "\u0647\u0646\u062f": 8683, "\u0646\u0645\u0627": 8684, "\u0627\u0644\u06a9": 8685, "\u0645\u0637": 8686, "\u06a9\u0631\u062f": 8687, "\u0634\u0646\u062f": 8688, "\u0631\u0627\u0646\u062f": 8689, "\u0646\u0634\u0627\u0646": 8690, "\u06cc\u06af": 8691, "\u06cc\u062f\u0633": 8692, "\u0634\u06a9\u0631": 8693, "\u0628\u0631\u0622": 8694, "\u0644\u0637": 8695, "\u0645\u0631\u0627": 8696, "\u0627\u0646\u062f\u0627": 8697, "\u0645\u0627\u0646\u06cc": 8698, "\u062f\u06af\u0627\u0646": 8699, "\u0645\u0627\u0646\u062f": 8700, "\u062e\u062a\u0647": 8701, "\u0627\u0631\u0646\u062f": 8702, "\u0628\u0642": 8703, "\u0631\u06cc\u0634": 8704, "\u0632\u06af": 8705, "\u0648\u0644\u0627": 8706, "\u0628\u062d": 8707, "\u06a9\u0627\u0641": 8708, "\u0631\u06cc\u0632": 8709, "\u0646\u0648\u0631": 8710, "\u062f\u0639": 8711, "\u0627\u0644\u0641": 8712, "\u0646\u06cc\u0646": 8713, "\u0642\u0646": 8714, "\u0628\u0631\u0627\u0646": 8715, "\u0648\u0639": 8716, "\u0645\u06cc\u0631": 8717, "\u0647\u0633\u062a": 8718, "\u067e\u0633": 8719, "\u0622\u0628": 8720, "\u0645\u0647\u0627": 8721, "\u0641\u0647": 8722, "\u0646\u062f\u062a": 8723, "\u062f\u0642": 8724, "\u06cc\u062f\u0633\u062a": 8725, "\u062f\u0647\u0627": 8726, "\u062f\u06cc\u0646": 8727, "\u0641\u062a\u0627\u062f": 8728, "\u0633\u062a\u0647": 8729, "\u0631\u06af\u0627": 8730, "\u0631\u0627\u0631": 8731, "\u067e\u0648\u0634": 8732, "\u0634\u0627\u062f": 8733, "\u06cc\u063a": 8734, "\u0642\u0645": 8735, "\u0648\u0631\u0645": 8736, "\u0646\u0627\u0631": 8737, "\u0628\u0631\u0633": 8738, "\u06cc\u0686": 8739, "\u0631\u0639": 8740, "\u06a9\u0633\u062a": 8741, "\u0648\u0646\u062f": 8742, "\u062d\u0642": 8743, "\u062d\u06a9": 8744, "\u062f\u06cc\u0634": 8745, "\u0639\u0632": 8746, "\u0647\u0627\u062f": 8747, "\u0639\u0627\u0644": 8748, "\u0641\u0646": 8749, "\u0647\u0627\u0631": 8750, "\u0645\u0639\u0627": 8751, "\u0641\u0631\u0645": 8752, "\u0627\u062f\u0627": 8753, "\u062c\u0647\u0627": 8754, "\u0627\u0632\u0646": 8755, "\u0634\u0628": 8756, "\u062a\u0648\u0627\u0646": 8757, "\u0627\u0644\u0647": 8758, "\u06af\u0630\u0631": 8759, "\u0642\u0634": 8760, "\u0633\u0627\u0632": 8761, "\u0648\u0631\u062a": 8762, "\u0648\u0632\u06cc": 8763, "\u0646\u0638": 8764, "\u0627\u0644\u0642": 8765, "\u0648\u0631\u0627\u0646": 8766, "\u0628\u0627\u0628": 8767, "\u0648\u0627\u06cc": 8768, "\u0628\u0631\u0634": 8769, "\u0627\u0628\u062a": 8770, "\u0633\u0642": 8771, "\u062e\u0648\u0627\u0631": 8772, "\u0642\u0631\u0627": 8773, "\u0633\u062a\u0646\u062f": 8774, "\u0627\u067e": 8775, "\u0641\u0642": 8776, "\u0633\u0627\u0644": 8777, "\u0648\u06cc\u062f": 8778, "\u062f\u062f": 8779, "\u062c\u0633": 8780, "\u06af\u0633\u062a": 8781, "\u0646\u062f\u0627\u0646": 8782, "\u0631\u062f\u0647": 8783, "\u0633\u0639": 8784, "\u062b\u0627": 8785, "\u0622\u0632": 8786, "\u0644\u0646\u062f": 8787, "\u0634\u0634": 8788, "\u0645\u06cc\u0627": 8789, "\u0627\u0645\u0634": 8790, "\u0627\u0645\u0631": 8791, "\u0686\u0634": 8792, "\u0627\u0646\u0628": 8793, "\u062a\u0631\u0633": 8794, "\u06af\u0641": 8795, "\u06af\u0641\u062a": 8796, "\u0646\u062f\u0646": 8797, "\u0631\u063a": 8798, "\u0627\u0644\u0644": 8799, "\u06cc\u0632\u06cc": 8800, "\u0648\u062f\u0647": 8801, "\u0633\u06cc\u062f": 8802, "\u0633\u06cc\u0645": 8803, "\u06cc\u0631\u0645": 8804, "\u062a\u062e": 8805, "\u0634\u0646\u0648": 8806, "\u0627\u0633\u06cc": 8807, "\u0634\u062a\u0647": 8808, "\u0627\u0648\u06cc": 8809, "\u0644\u0648\u0627": 8810, "\u0646\u0627\u06a9": 8811, "\u0686\u0647": 8812, "\u0631\u0627\u0644": 8813, "\u0627\u062f\u0646": 8814, "\u06cc\u062e\u062a": 8815, "\u06af\u0632\u06cc": 8816, "\u0641\u0639": 8817, "\u0645\u0646\u06cc": 8818, "\u0634\u0627\u0646\u062f": 8819, "\u06a9\u0627\u0645": 8820, "\u0628\u062c": 8821, "\u0648\u0627\u0646\u06cc": 8822, "\u06cc\u0627\u0628": 8823, "\u0633\u06cc\u0627": 8824, "\u0648\u0627\u0628": 8825, "\u0644\u0647\u0627": 8826, "\u0633\u062d": 8827, "\u062f\u06a9": 8828, "\u0644\u0627\u062a": 8829, "\u06af\u06cc\u0631": 8830, "\u0648\u0646\u06cc": 8831, "\u0644\u0627\u0628": 8832, "\u067e\u06cc\u0631": 8833, "\u06cc\u0646\u0645": 8834, "\u062c\u0627\u06cc": 8835, "\u0634\u0645\u0627": 8836, "\u0627\u0645\u062f": 8837, "\u0627\u062a\u06cc": 8838, "\u0627\u06cc\u0646\u062f": 8839, "\u0631\u0645\u06cc": 8840, "\u0631\u0648\u0634": 8841, "\u062e\u0637": 8842, "\u0644\u063a": 8843, "\u0632\u06cc\u0646": 8844, "\u0648\u0631\u0634": 8845, "\u0627\u06cc\u06cc\u062f": 8846, "\u0634\u0641": 8847, "\u0627\u0628\u0634": 8848, "\u06af\u0646\u062f": 8849, "\u0627\u062f\u0647": 8850, "\u0639\u0630": 8851, "\u06cc\u062c": 8852, "\u0641\u062a\u0647": 8853, "\u0627\u0639\u06cc": 8854, "\u062e\u062a\u0646": 8855, "\u0627\u0647\u0631": 8856, "\u0628\u062e\u0648": 8857, "\u0646\u0627\u0632": 8858, "\u0634\u0627\u0647": 8859, "\u062f\u0627\u0634": 8860, "\u0634\u0639": 8861, "\u067e\u0631\u062f": 8862, "\u0646\u06cc\u06a9": 8863, "\u062e\u0648\u0631\u062f": 8864, "\u0628\u0648\u062f": 8865, "\u0642\u0627\u0646": 8866, "\u0646\u0648\u06cc": 8867, "\u0641\u0636": 8868, "\u0637\u0646": 8869, "\u0627\u0645\u0627\u0646": 8870, "\u0631\u062e\u0648": 8871, "\u0627\u0646\u06cc\u0645": 8872, "\u0648\u0644\u06cc": 8873, "\u0634\u06a9\u0627": 8874, "\u0627\u062d\u062a": 8875, "\u0628\u062f\u06cc": 8876, "\u06cc\u0634\u0627": 8877, "\u063a\u0646": 8878, "\u0648\u062f\u0646": 8879, "\u062f\u0627\u0631\u06cc": 8880, "\u06cc\u0645\u06cc": 8881, "\u062e\u0627\u0631": 8882, "\u0631\u067e": 8883, "\u0641\u062a\u0645": 8884, "\u0628\u0646\u0627": 8885, "\u0628\u0648\u0627": 8886, "\u06cc\u0631\u062a": 8887, "\u0645\u06cc\u0632": 8888, "\u06cc\u0648\u0627": 8889, "\u0638\u0631": 8890, "\u067e\u0630": 8891, "\u062e\u062a\u06cc": 8892, "\u0628\u0637": 8893, "\u0641\u06af": 8894, "\u062e\u0628": 8895, "\u0648\u062f\u0627": 8896, "\u062f\u0627\u0646\u06cc": 8897, "\u0622\u0648\u0631": 8898, "\u06af\u0631\u0627": 8899, "\u0647\u0631\u06cc": 8900, "\u0633\u0645\u0627": 8901, "\u0635\u062d": 8902, "\u06a9\u0646\u06cc": 8903, "\u062e\u0648\u0627\u0647": 8904, "\u0641\u0631\u0633": 8905, "\u0631\u0645\u0627\u0646": 8906, "\u0627\u0631\u0648": 8907, "\u0631\u0627\u062f": 8908, "\u0648\u0631\u0633": 8909, "\u067e\u0647": 8910, "\u0645\u062f\u0627": 8911, "\u0627\u0644\u062e": 8912, "\u0646\u0686": 8913, "\u0630\u0648": 8914, "\u062e\u0646\u062f": 8915, "\u0648\u0632\u0646": 8916, "\u0633\u0631\u0648": 8917, "\u0627\u0634\u0627": 8918, "\u0646\u062f\u06af": 8919, "\u06af\u062f": 8920, "\u062f\u062e": 8921, "\u06a9\u0627\u0644": 8922, "\u0627\u0628\u0627": 8923, "\u0639\u0647": 8924, "\u0686\u0648": 8925, "\u062d\u0634": 8926, "\u0646\u062f\u0627\u0632": 8927, "\u0633\u0637": 8928, "\u06cc\u062f\u0634": 8929, "\u0632\u0633": 8930, "\u062f\u0646\u06cc": 8931, "\u0631\u0627\u0647": 8932, "\u0627\u0633\u0627": 8933, "\u06cc\u0627\u0633": 8934, "\u062f\u0648\u0632": 8935, "\u0648\u06cc\u0633": 8936, "\u062f\u0631\u0646": 8937, "\u0622\u0647": 8938, "\u0627\u0639\u062a": 8939, "\u06af\u0630\u0627": 8940, "\u0628\u06cc\u062f": 8941, "\u0642\u0641": 8942, "\u0630\u0627\u0631": 8943, "\u0648\u0627\u0633": 8944, "\u06a9\u0631\u0627": 8945, "\u0627\u0631\u06a9": 8946, "\u0646\u06af\u0647": 8947, "\u0631\u0633\u0627\u0646": 8948, "\u0633\u0648\u0632": 8949, "\u0635\u0646": 8950, "\u0646\u0627\u0628": 8951, "\u0627\u0631\u06af": 8952, "\u0632\u062a": 8953, "\u0634\u062a\u0646": 8954, "\u062e\u0641": 8955, "\u0645\u0627\u0645": 8956, "\u0631\u062e\u0627": 8957, "\u0639\u0641": 8958, "\u062c\u0648\u06cc": 8959, "\u0633\u062a\u0648": 8960, "\u0628\u06cc\u0631": 8961, "\u06af\u0631\u0641": 8962, "\u0646\u0633\u0627": 8963, "\u062a\u0635": 8964, "\u0627\u0644\u0631": 8965, "\u0628\u0631\u06a9": 8966, "\u0631\u0627\u06cc\u06cc": 8967, "\u0627\u0645\u0647": 8968, "\u0631\u0627\u0633\u062a": 8969, "\u0644\u0635": 8970, "\u0644\u0627\u0641": 8971, "\u062f\u0648\u0631": 8972, "\u0631\u0648\u0627\u0646": 8973, "\u0647\u0631\u0627": 8974, "\u0627\u0644\u062c": 8975, "\u0646\u0648\u0646": 8976, "\u0646\u062f\u0633": 8977, "\u0641\u06a9\u0646\u062f": 8978, "\u06cc\u06cc\u0645": 8979, "\u062e\u06cc\u0631": 8980, "\u062e\u0627\u06a9": 8981, "\u062d\u0631\u0627": 8982, "\u0648\u0637": 8983, "\u0645\u0634\u0627": 8984, "\u0646\u0627\u0647": 8985, "\u0632\u0633\u062a": 8986, "\u0634\u0642": 8987, "\u062e\u062f\u0627": 8988, "\u0647\u0645\u0627": 8989, "\u0631\u0633\u06cc\u062f": 8990, "\u0639\u0646\u0627": 8991, "\u0628\u0627\u0634": 8992, "\u0648\u06cc\u0646": 8993, "\u0631\u0627\u062a": 8994, "\u0646\u062f\u0648": 8995, "\u0648\u06cc\u0634": 8996, "\u0634\u06af": 8997, "\u06af\u0631\u0641\u062a": 8998, "\u063a\u0648": 8999, "\u0641\u0627\u0646": 9000, "\u0639\u0635": 9001, "\u0642\u0633": 9002, "\u06cc\u0627\u062a": 9003, "\u0642\u0628\u0627": 9004, "\u0628\u0648\u0633": 9005, "\u06cc\u0634\u0627\u0646": 9006, "\u0627\u0645\u0648": 9007, "\u0628\u0631\u062e": 9008, "\u06af\u0634\u062a": 9009, "\u0628\u0627\u06cc\u06cc": 9010, "\u06af\u0648\u0646": 9011, "\u0638\u0627": 9012, "\u0627\u0646\u0647\u0627": 9013, "\u062f\u0634\u0627": 9014, "\u0631\u0627\u0646\u06cc": 9015, "\u0628\u0641\u0631": 9016, "\u06cc\u0646\u0633": 9017, "\u0627\u06cc\u0644": 9018, "\u062f\u0644\u0627": 9019, "\u0630\u06cc\u0631": 9020, "\u0627\u0644\u062f": 9021, "\u0646\u0648\u0634": 9022, "\u0646\u0627\u062e": 9023, "\u0627\u0646\u0627\u0646": 9024, "\u0648\u0631\u0633\u062a": 9025, "\u0631\u0633\u062a\u0627": 9026, "\u0633\u06cc\u0631": 9027, "\u062e\u0648\u062f": 9028, "\u062c\u0632": 9029, "\u062e\u0631\u06cc": 9030, "\u06cc\u0631\u0634": 9031, "\u062f\u0633\u062a\u06cc": 9032, "\u062f\u0627\u0631\u0627": 9033, "\u0633\u06af": 9034, "\u0632\u06a9": 9035, "\u0631\u0645\u0646": 9036, "\u0627\u062f\u0633": 9037, "\u0646\u06cc\u0634": 9038, "\u0645\u0633\u0627": 9039, "\u0627\u062b": 9040, "\u0637\u0641": 9041, "\u0648\u06af": 9042, "\u067e\u0631\u0648\u0631": 9043, "\u0645\u062b": 9044, "\u0646\u06af\u0634": 9045, "\u0627\u0632\u0627\u0646": 9046, "\u063a\u0632": 9047, "\u0631\u0627\u0634": 9048, "\u0641\u0631\u0645\u0627": 9049, "\u0646\u0647\u0627\u062f": 9050, "\u0631\u0648\u0628": 9051, "\u0686\u0631": 9052, "\u06cc\u0632\u062f": 9053, "\u0628\u0646\u06af": 9054, "\u0627\u062f\u062a": 9055, "\u0648\u0627\u0646\u062f": 9056, "\u0628\u0634\u0627": 9057, "\u0631\u062a\u0631": 9058, "\u06a9\u0628\u0627": 9059, "\u0646\u0648\u062f": 9060, "\u0627\u0627": 9061, "\u0622\u0641": 9062, "\u0628\u0631\u0645": 9063, "\u0631\u06a9\u0634": 9064, "\u0639\u0633": 9065, "\u062f\u0648\u0633": 9066, "\u062c\u062a": 9067, "\u0631\u0646\u062c": 9068, "\u0631\u0647\u06cc": 9069, "\u0634\u06a9\u06cc": 9070, "\u06a9\u06cc\u0646": 9071, "\u06cc\u0646\u062a": 9072, "\u0631\u062f\u0627\u0631": 9073, "\u0648\u0641\u0627": 9074, "\u0646\u0627\u06af": 9075, "\u0648\u06cc\u0645": 9076, "\u06cc\u06cc\u0633": 9077, "\u0644\u0644\u0647": 9078, "\u06cc\u0627\u0644": 9079, "\u0646\u062f\u0627\u0631": 9080, "\u06cc\u0645\u0627\u0646": 9081, "\u0645\u0631\u0648": 9082, "\u062a\u0627\u06cc": 9083, "\u0627\u0646\u06a9": 9084, "\u06cc\u0631\u0647": 9085, "\u0627\u0646\u0648": 9086, "\u0627\u0642\u06cc": 9087, "\u067e\u0630\u06cc": 9088, "\u067e\u0630\u06cc\u0631": 9089, "\u0646\u062f\u06cc\u062f": 9090, "\u0642\u0627\u06cc": 9091, "\u0644\u06cc\u0633": 9092, "\u062f\u0631\u0622": 9093, "\u0641\u06af\u0646": 9094, "\u0644\u062a\u06cc": 9095, "\u0634\u06a9\u0646": 9096, "\u0631\u0633\u062a\u06cc": 9097, "\u0648\u0646\u0633": 9098, "\u062d\u0646": 9099, "\u0632\u062e": 9100, "\u062f\u0648\u062f": 9101, "\u0627\u0646\u06cc\u0633": 9102, "\u0628\u062a\u0631": 9103, "\u0639\u0637": 9104, "\u0627\u0641\u06cc": 9105, "\u0627\u062f\u0633\u062a": 9106, "\u06cc\u0647\u0627": 9107, "\u0627\u0647\u0646": 9108, "\u0631\u0648\u0627\u0631": 9109, "\u0641\u0645": 9110, "\u06cc\u062a\u06cc": 9111, "\u0627\u0628\u062f": 9112, "\u0627\u0645\u0646": 9113, "\u0633\u0648\u0627": 9114, "\u062e\u0627\u06cc": 9115, "\u0647\u0632": 9116, "\u062f\u06af\u06cc": 9117, "\u062d\u062c": 9118, "\u0648\u0631\u0646": 9119, "\u0644\u06cc\u0645": 9120, "\u0627\u0646\u06cc\u062f": 9121, "\u0641\u0631\u0648\u0632": 9122, "\u0632\u0627\u062f": 9123, "\u06a9\u0631\u06cc": 9124, "\u0634\u062a\u0631": 9125, "\u0635\u0648\u0631": 9126, "\u0648\u06cc\u0627": 9127, "\u067e\u0646\u062f": 9128, "\u0622\u06cc": 9129, "\u0646\u062d": 9130, "\u0648\u0634\u0646": 9131, "\u0628\u067e\u0631": 9132, "\u062e\u0644\u0627": 9133, "\u062f\u0644\u06cc": 9134, "\u0646\u062f\u06cc\u0634": 9135, "\u06cc\u06cc\u0633\u062a": 9136, "\u0627\u062f\u0634": 9137, "\u06a9\u0634\u06cc": 9138, "\u0627\u0646\u06cc\u0633\u062a": 9139, "\u0628\u062e\u0631": 9140, "\u0642\u0631\u06cc": 9141, "\u06af\u062f\u0627": 9142, "\u0642\u06cc\u0627": 9143, "\u0627\u0646\u062c": 9144, "\u06cc\u0628\u06cc": 9145, "\u0627\u0644\u0635": 9146, "\u0627\u0647\u062f": 9147, "\u0633\u062a\u0627\u062f": 9148, "\u0631\u062f\u0633": 9149, "\u0642\u062f\u06cc": 9150, "\u06a9\u0622": 9151, "\u0647\u0648\u0627": 9152, "\u0645\u0646\u062a": 9153, "\u0644\u0645\u0627": 9154, "\u0645\u0627\u0647": 9155, "\u06cc\u062b": 9156, "\u0648\u0633\u06cc": 9157, "\u0631\u062f\u0646\u062f": 9158, "\u0627\u0648\u0644": 9159, "\u06af\u0632\u0627": 9160, "\u0633\u0634": 9161, "\u06a9\u0627\u0633": 9162, "\u0646\u0627\u062f": 9163, "\u0637\u0631\u0627": 9164, "\u0634\u062a\u0627": 9165, "\u0627\u06cc\u0627\u0646": 9166, "\u0635\u0645": 9167, "\u0627\u0646\u062f\u06cc": 9168, "\u063a\u0628": 9169, "\u067e\u0631\u0633\u062a": 9170, "\u067e\u06cc\u0645": 9171, "\u0622\u0634": 9172, "\u0646\u0641\u0633": 9173, "\u0627\u0632\u06af": 9174, "\u0631\u06cc\u0628": 9175, "\u062e\u0631\u0645": 9176, "\u0627\u0630": 9177, "\u062a\u0646\u06cc": 9178, "\u0628\u0648\u0627\u0644": 9179, "\u0627\u0634\u06cc": 9180, "\u0628\u06af\u0631": 9181, "\u0628\u062f\u0631": 9182, "\u0638\u0644": 9183, "\u0639\u0627\u062f": 9184, "\u0627\u0641\u06a9": 9185, "\u0631\u06af\u06cc": 9186, "\u0627\u06cc\u0633": 9187, "\u0646\u0641\u0631": 9188, "\u062a\u063a": 9189, "\u062a\u062c": 9190, "\u062e\u0648\u06cc": 9191, "\u0631\u06af\u0627\u0647": 9192, "\u0641\u0627\u06cc": 9193, "\u0631\u062c\u0627": 9194, "\u0628\u0627\u0646\u06cc": 9195, "\u062a\u06cc\u0646": 9196, "\u0648\u0641\u062a": 9197, "\u0631\u0622\u0648": 9198, "\u0628\u0631\u0647": 9199, "\u0632\u0646\u06cc": 9200, "\u0642\u0637": 9201, "\u0627\u0633\u0645": 9202, "\u0646\u062f\u0633\u062a": 9203, "\u0646\u06af\u0627\u0631": 9204, "\u0646\u062c\u06cc": 9205, "\u06cc\u0631\u0627\u0646": 9206, "\u0645\u0627\u06cc\u06cc": 9207, "\u0648\u0627\u0646\u0645": 9208, "\u0632\u0631\u062f": 9209, "\u06cc\u0644\u06cc": 9210, "\u0634\u06cc\u0646": 9211, "\u0627\u0633\u0628": 9212, "\u0627\u0646\u062f\u0631": 9213, "\u062b\u0646": 9214, "\u0646\u0628\u0648": 9215, "\u06a9\u0645\u0627": 9216, "\u0622\u062e": 9217, "\u0628\u06cc\u0641": 9218, "\u062a\u06af\u0627": 9219, "\u0627\u0644\u0627\u06cc": 9220, "\u0633\u0627\u0646\u06cc": 9221, "\u062f\u0648\u0644": 9222, "\u063a\u0641": 9223, "\u0631\u0627\u06a9": 9224, "\u0644\u0627\u06a9": 9225, "\u0628\u0627\u062a": 9226, "\u067e\u06cc\u0686": 9227, "\u0628\u0631\u0628": 9228, "\u062c\u0641": 9229, "\u0628\u06cc\u062e": 9230, "\u062f\u0631\u0628": 9231, "\u0628\u0634\u0646": 9232, "\u0644\u06cc\u0644": 9233, "\u063a\u0627\u0646": 9234, "\u06cc\u0648\u0646": 9235, "\u062d\u06a9\u0645": 9236, "\u062f\u0631\u0633": 9237, "\u0646\u0627\u06cc\u06cc": 9238, "\u0647\u062c": 9239, "\u06cc\u062f\u0646\u062f": 9240, "\u062c\u0639": 9241, "\u0634\u0646\u06cc": 9242, "\u062c\u0648\u0627": 9243, "\u062c\u0647\u0627\u0646": 9244, "\u062e\u0627\u0646\u0647": 9245, "\u062f\u0648\u0633\u062a": 9246, "\u0631\u0628\u06cc": 9247, "\u0641\u062f": 9248, "\u06cc\u0646\u0633\u062a": 9249, "\u06cc\u0627\u062f": 9250, "\u0630\u0634": 9251, "\u0634\u062a\u0645": 9252, "\u0641\u0632\u0627": 9253, "\u0646\u0628\u06cc": 9254, "\u062a\u0645\u06cc": 9255, "\u067e\u0631\u06cc": 9256, "\u0631\u062a\u0627": 9257, "\u06af\u0627\u0631\u06cc": 9258, "\u0622\u0644": 9259, "\u0633\u0628\u0627": 9260, "\u0634\u0645\u0631": 9261, "\u0627\u0646\u06af\u06cc": 9262, "\u0627\u0645\u0644": 9263, "\u0646\u0627\u0644": 9264, "\u06a9\u0631\u0645": 9265, "\u0628\u062f\u0627\u0646": 9266, "\u0627\u0647\u0627\u0646": 9267, "\u0627\u0632\u0646\u062f": 9268, "\u06cc\u0648\u0627\u0646": 9269, "\u0632\u06cc\u0631": 9270, "\u062a\u0645\u0627": 9271, "\u0645\u0634\u06a9": 9272, "\u0645\u0627\u0646\u0634": 9273, "\u0648\u0627\u0633\u062a": 9274, "\u0648\u0634\u06cc\u062f": 9275, "\u0631\u06cc\u0627\u0646": 9276, "\u0646\u062e\u0648": 9277, "\u0632\u06af\u0627": 9278, "\u0646\u0645\u0627\u06cc": 9279, "\u0631\u062f\u0633\u062a": 9280, "\u0646\u0634\u06cc": 9281, "\u0633\u067e\u0631": 9282, "\u0648\u0635": 9283, "\u06af\u0631\u0627\u0646": 9284, "\u06a9\u0627\u06cc": 9285, "\u0645\u0627\u062a": 9286, "\u0631\u0627\u0642": 9287, "\u0636\u0644": 9288, "\u0627\u0644\u0633\u062a": 9289, "\u0631\u06a9\u0627": 9290, "\u0627\u0628\u0646": 9291, "\u0627\u0644\u0627\u0646": 9292, "\u06cc\u0646\u0634": 9293, "\u0648\u0628\u0627": 9294, "\u0644\u06cc\u062f": 9295, "\u067e\u0627\u0631": 9296, "\u0631\u0647\u0646": 9297, "\u0622\u062a": 9298, "\u0646\u0634\u0633": 9299, "\u0645\u0628\u0631": 9300, "\u0627\u0648\u0627": 9301, "\u0627\u0631\u0628": 9302, "\u062e\u0634\u0627": 9303, "\u06af\u0630\u0627\u0631": 9304, "\u0631\u0648\u0633": 9305, "\u062e\u062a\u0645": 9306, "\u06cc\u0632\u0646": 9307, "\u0644\u0648\u0644": 9308, "\u0628\u0648\u06cc": 9309, "\u0648\u0627\u0631\u06cc": 9310, "\u062f\u0631\u062f": 9311, "\u0631\u0634\u0627": 9312, "\u062f\u0627\u0644": 9313, "\u0648\u0645\u0646": 9314, "\u0627\u0646\u062f\u0647": 9315, "\u0634\u0627\u06cc\u06cc": 9316, "\u0634\u06cc\u0645": 9317, "\u0627\u0628\u0633": 9318, "\u0630\u0644": 9319, "\u062f\u0627\u0646\u0634": 9320, "\u0648\u0644\u062a": 9321, "\u0637\u0639": 9322, "\u0622\u0645\u062f": 9323, "\u0648\u0627\u0632": 9324, "\u062f\u06cc\u0631": 9325, "\u0646\u067e\u0631": 9326, "\u0646\u0634\u0633\u062a": 9327, "\u06af\u0630\u0634": 9328, "\u0630\u0634\u062a": 9329, "\u06af\u0630\u0634\u062a": 9330, "\u0627\u0641\u06a9\u0646": 9331, "\u0642\u0644\u0627": 9332, "\u06cc\u0627\u0631\u0627": 9333, "\u0628\u0631\u062a": 9334, "\u0627\u0644\u0627\u0645": 9335, "\u0644\u0627\u0633": 9336, "\u06cc\u0634\u0645": 9337, "\u0646\u06cc\u0627\u0632": 9338, "\u0633\u062d\u0631": 9339, "\u0639\u0627\u0631": 9340, "\u0642\u0627\u0631": 9341, "\u0627\u0641\u0634": 9342, "\u06cc\u0646\u062f\u0627": 9343, "\u0641\u0627\u062a": 9344, "\u0631\u062f\u0648": 9345, "\u0627\u0628\u0647": 9346, "\u0645\u0631\u062f\u0627": 9347, "\u0648\u0628\u06cc": 9348, "\u062c\u0648\u0631": 9349, "\u0627\u0635\u0644": 9350, "\u0648\u0634\u0627": 9351, "\u0631\u062e\u0648\u0627": 9352, "\u0627\u0644\u0644\u0647": 9353, "\u062f\u06cc\u0633": 9354, "\u0628\u0647\u0631": 9355, "\u062a\u06cc\u0627": 9356, "\u06cc\u0627\u0641": 9357, "\u0647\u0646\u06af": 9358, "\u0631\u0632\u0627": 9359, "\u0627\u062d\u0628": 9360, "\u0641\u0632\u0648": 9361, "\u0627\u06cc\u0633\u062a": 9362, "\u0627\u0641\u062a\u0627": 9363, "\u062f\u0627\u0634\u062a": 9364, "\u067e\u0633\u0646": 9365, "\u067e\u0633\u0646\u062f": 9366, "\u06a9\u0627\u0647": 9367, "\u062f\u06cc\u0648": 9368, "\u062e\u0627\u0644": 9369, "\u0632\u0645\u0627": 9370, "\u062e\u0648\u0634": 9371, "\u0631\u0627\u0645\u06cc": 9372, "\u0631\u06af\u0647": 9373, "\u0628\u0634\u0627\u0646": 9374, "\u0648\u0634\u0645": 9375, "\u0627\u0631\u0632": 9376, "\u0645\u062f\u06cc": 9377, "\u0628\u0648\u0631": 9378, "\u062e\u0636": 9379, "\u0641\u0633\u062a": 9380, "\u06af\u06cc\u0646": 9381, "\u0632\u0646\u0627": 9382, "\u06af\u0634\u0627\u06cc": 9383, "\u0627\u062e\u0648": 9384, "\u062a\u0627\u0646\u06cc": 9385, "\u067e\u06cc\u0634": 9386, "\u0645\u06cc\u0645": 9387, "\u062f\u0631\u0645": 9388, "\u0627\u0644\u063a": 9389, "\u0627\u0647\u0645": 9390, "\u0645\u0639\u0646": 9391, "\u0646\u062f\u06af\u0627": 9392, "\u0627\u0647\u0634": 9393, "\u06cc\u0631\u0633": 9394, "\u062a\u0634\u0627": 9395, "\u0627\u06cc\u06cc\u0645": 9396, "\u062f\u06cc\u0627": 9397, "\u06cc\u0631\u0648": 9398, "\u0633\u0644\u0627": 9399, "\u0627\u06a9\u0631": 9400, "\u0627\u06a9\u06cc": 9401, "\u0631\u06cc\u0641": 9402, "\u0646\u0627\u062a": 9403, "\u0645\u0647\u0631": 9404, "\u0634\u0648\u0631": 9405, "\u0646\u06af\u0631\u06cc": 9406, "\u06af\u0633\u062a\u0631": 9407, "\u0627\u0628\u0633\u062a": 9408, "\u0631\u06af\u0631": 9409, "\u0627\u0642\u062a": 9410, "\u0645\u0631\u0647": 9411, "\u0645\u0627\u0632": 9412, "\u0646\u0627\u0648": 9413, "\u0636\u062d": 9414, "\u0641\u062a\u0646\u062f": 9415, "\u0630\u0631\u0627": 9416, "\u0631\u0631": 9417, "\u0632\u0622": 9418, "\u0631\u0647\u0627\u06cc": 9419, "\u0645\u0648\u0632": 9420, "\u0646\u0642\u0627": 9421, "\u06a9\u0634\u062a": 9422, "\u0627\u0646\u0628\u0627": 9423, "\u0631\u0646\u06cc": 9424, "\u0648\u0647\u0631": 9425, "\u0631\u0686": 9426, "\u0627\u06cc\u0628": 9427, "\u0631\u0634\u0627\u0646": 9428, "\u0644\u0628\u06cc": 9429, "\u0638\u0645": 9430, "\u0631\u0648\u0645": 9431, "\u0648\u0631\u062f\u06cc": 9432, "\u06af\u0631\u062f\u0627": 9433, "\u062c\u0627\u0645": 9434, "\u0648\u0631\u062f\u0646": 9435, "\u0631\u06af\u0634": 9436, "\u06cc\u0641\u062a": 9437, "\u06cc\u0627\u06cc\u06cc": 9438, "\u0628\u062e\u0648\u0627": 9439, "\u0628\u06af\u0630": 9440, "\u0639\u0644\u0627": 9441, "\u0634\u0627\u0631": 9442, "\u0648\u0633\u062a\u0627": 9443, "\u06cc\u062f\u0627\u0631": 9444, "\u06cc\u0644\u0627": 9445, "\u06cc\u0632\u0645": 9446, "\u0647\u06cc\u0645": 9447, "\u0641\u0635": 9448, "\u0627\u0641\u062a\u0627\u062f": 9449, "\u0646\u062f\u0646\u062f": 9450, "\u062e\u0648\u0627\u0646\u062f": 9451, "\u0648\u0645\u06cc": 9452, "\u0627\u0641\u0631\u0627": 9453, "\u0627\u0631\u06cc\u0645": 9454, "\u0627\u062f\u0631": 9455, "\u06cc\u0628\u062a": 9456, "\u06cc\u062f\u062a": 9457, "\u0627\u0646\u062f\u0627\u0632": 9458, "\u0646\u0627\u0634": 9459, "\u0632\u0647\u0627": 9460, "\u06a9\u0648\u0634": 9461, "\u0634\u0631\u06cc": 9462, "\u06cc\u0628\u0634": 9463, "\u0631\u0648\u062f": 9464, "\u0631\u062f\u0634": 9465, "\u0648\u0646\u0633\u062a": 9466, "\u062c\u0633\u062a": 9467, "\u0631\u0632\u0646": 9468, "\u062b\u0631": 9469, "\u0641\u0631\u0633\u062a": 9470, "\u0631\u0632\u0648": 9471, "\u06cc\u0631\u062f": 9472, "\u0641\u0627\u0631": 9473, "\u0648\u0627\u0646\u0646": 9474, "\u0648\u0627\u0646\u0646\u062f": 9475, "\u0647\u0644\u0627": 9476, "\u0627\u0646\u0639": 9477, "\u062f\u0641": 9478, "\u062e\u0648\u0646": 9479, "\u0628\u063a": 9480, "\u0628\u0633\u062a\u0627": 9481, "\u0627\u0628\u0644": 9482, "\u0645\u062d\u0627": 9483, "\u0627\u0632\u0627\u0631": 9484, "\u0628\u0631\u0641": 9485, "\u062d\u0627\u0644": 9486, "\u0633\u067e\u0627": 9487, "\u0645\u0631\u062f\u06cc": 9488, "\u062d\u0641": 9489, "\u0628\u06cc\u0645": 9490, "\u062f\u0627\u062e": 9491, "\u0646\u06a9\u0648": 9492, "\u0648\u0631\u0646\u062f": 9493, "\u0632\u0627\u0631\u06cc": 9494, "\u0628\u06cc\u0646\u062f": 9495, "\u0627\u0645\u0633": 9496, "\u0627\u0639\u062f": 9497, "\u0639\u062f\u0627": 9498, "\u062f\u0631\u0627\u0646": 9499, "\u0631\u0627\u0646\u062f\u0627": 9500, "\u062e\u0628\u0631": 9501, "\u0634\u0646\u0648\u062f": 9502, "\u0628\u062f\u0648": 9503, "\u062f\u0646\u0634": 9504, "\u0631\u062d\u0645": 9505, "\u0646\u0645\u0648": 9506, "\u0628\u0627\u0632\u06cc": 9507, "\u0628\u0633\u0627": 9508, "\u0647\u0631\u0645": 9509, "\u0644\u0632": 9510, "\u0648\u0627\u0646\u0634": 9511, "\u062f\u0648\u0646": 9512, "\u0637\u0627\u0646": 9513, "\u062f\u0631\u06af": 9514, "\u0632\u0648\u0631": 9515, "\u06cc\u0631\u0633\u062a": 9516, "\u06cc\u0645\u062a": 9517, "\u06cc\u0636": 9518, "\u0645\u062a\u0627": 9519, "\u062f\u0645\u0627": 9520, "\u0644\u0648\u062f": 9521, "\u0633\u0646\u06af": 9522, "\u0634\u0648\u06cc": 9523, "\u06a9\u0633\u0627": 9524, "\u062e\u0631\u062f": 9525, "\u0637\u0647": 9526, "\u0648\u0627\u062a": 9527, "\u06cc\u0642\u06cc": 9528, "\u0647\u062f\u0627": 9529, "\u0645\u0648\u0646": 9530, "\u0627\u06cc\u06cc\u0633": 9531, "\u0627\u06cc\u06cc\u0633\u062a": 9532, "\u0628\u0627\u0631\u06cc": 9533, "\u06cc\u0627\u0641\u062a": 9534, "\u0646\u062f\u06af\u0627\u0646": 9535, "\u06cc\u0627\u0648": 9536, "\u0622\u062a\u0634": 9537, "\u0639\u0627\u0645": 9538, "\u067e\u0634": 9539, "\u0628\u0646\u062f\u06cc": 9540, "\u0628\u0635": 9541, "\u0622\u062f": 9542, "\u0641\u0632\u0627\u06cc": 9543, "\u062f\u0628\u0627": 9544, "\u0627\u0628\u0645": 9545, "\u0641\u0631\u0627\u0632": 9546, "\u0645\u0648\u0627": 9547, "\u0648\u062a\u06cc": 9548, "\u0648\u062f\u0633": 9549, "\u0631\u0642\u06cc": 9550, "\u0648\u0634\u062a": 9551, "\u0642\u0627\u0644": 9552, "\u0631\u0648\u062e": 9553, "\u062d\u06cc\u0631": 9554, "\u0648\u0646\u0634": 9555, "\u0628\u0645\u0627": 9556, "\u0645\u0633\u06a9": 9557, "\u0639\u0627\u0634": 9558, "\u0627\u062c\u0631": 9559, "\u0639\u0644\u06cc": 9560, "\u0645\u0636": 9561, "\u0646\u0627\u067e": 9562, "\u06cc\u0627\u0646\u06cc": 9563, "\u0631\u0628\u0627\u0646": 9564, "\u0645\u0631\u06cc": 9565, "\u0644\u06cc\u0627": 9566, "\u0627\u0641\u0633": 9567, "\u0627\u0632\u0631": 9568, "\u062f\u0627\u0646\u0645": 9569, "\u0647\u0647": 9570, "\u06af\u0634\u0627\u062f": 9571, "\u06cc\u0628\u0647": 9572, "\u0632\u0648\u062f": 9573, "\u0634\u0627\u0646\u06cc": 9574, "\u06cc\u06af\u0627": 9575, "\u0627\u06a9\u0627": 9576, "\u0627\u06a9\u0628": 9577, "\u0631\u0628\u0646": 9578, "\u0634\u06a9\u0633": 9579, "\u0646\u0634\u0646": 9580, "\u0647\u0631\u0628": 9581, "\u0632\u06af\u0627\u0631": 9582, "\u0686\u0627\u0631": 9583, "\u0636\u0648": 9584, "\u0628\u0644\u0627": 9585, "\u0627\u06cc\u0647": 9586, "\u0642\u0639": 9587, "\u062f\u0627\u062e\u062a": 9588, "\u0628\u0634\u06a9": 9589, "\u0644\u0627\u06cc\u06cc": 9590, "\u0645\u0634\u0627\u0646": 9591, "\u0645\u062c\u0627": 9592, "\u067e\u0627\u0634": 9593, "\u0644\u0627\u062d": 9594, "\u0632\u06cc\u0645": 9595, "\u0633\u0646\u0627": 9596, "\u0646\u06af\u0627\u0646": 9597, "\u0635\u0627\u0644": 9598, "\u0631\u0645\u0633": 9599, "\u067e\u0627\u0644": 9600, "\u062a\u0631\u0645": 9601, "\u062f\u0648\u06cc": 9602, "\u0627\u0646\u062f\u0646": 9603, "\u062d\u06cc\u0627": 9604, "\u0627\u0633\u0631": 9605, "\u06a9\u0627\u0634": 9606, "\u0645\u0644\u06a9": 9607, "\u0644\u0637\u0627": 9608, "\u062b\u0644": 9609, "\u062c\u0627\u0647": 9610, "\u0633\u062a\u06af": 9611, "\u0627\u0642\u0644": 9612, "\u0627\u06cc\u06af": 9613, "\u0645\u0634\u06cc": 9614, "\u0634\u062e": 9615, "\u0646\u06af\u0630": 9616, "\u0646\u0638\u0631": 9617, "\u0639\u06cc\u0646": 9618, "\u0645\u0646\u0647": 9619, "\u0648\u0632\u062f": 9620, "\u0627\u0647\u0644": 9621, "\u0644\u0645\u0633": 9622, "\u0632\u062f\u06cc": 9623, "\u0686\u06a9": 9624, "\u0648\u0646\u0647": 9625, "\u062e\u06cc\u0627": 9626, "\u0644\u06cc\u0633\u062a": 9627, "\u0622\u0645\u06cc": 9628, "\u0648\u0646\u062a": 9629, "\u06cc\u0648\u0633": 9630, "\u0635\u0631\u0627": 9631, "\u0644\u0627\u062f": 9632, "\u0627\u0641\u0644": 9633, "\u0648\u06cc\u0632": 9634, "\u067e\u0627\u06a9": 9635, "\u062f\u062d": 9636, "\u0632\u0647\u0631": 9637, "\u0628\u0627\u0633": 9638, "\u0648\u0627\u0645": 9639, "\u0644\u0628\u0627": 9640, "\u0642\u06cc\u0646": 9641, "\u0627\u06a9\u0646": 9642, "\u06af\u0645\u0627": 9643, "\u0645\u0648\u0645": 9644, "\u0634\u0646\u06cc\u062f": 9645, "\u0637\u0627\u0644": 9646, "\u062b\u0646\u0627": 9647, "\u0627\u0633\u062a\u0627": 9648, "\u0627\u06af\u0631": 9649, "\u062e\u0636\u0631": 9650, "\u062e\u062a\u0631": 9651, "\u062d\u0627\u0646": 9652, "\u0646\u0631\u0627": 9653, "\u067e\u06cc\u0648": 9654, "\u062f\u0631\u0633\u062a": 9655, "\u0645\u06cc\u0627\u0646": 9656, "\u0631\u0622\u0648\u0631": 9657, "\u06cc\u0645\u0646": 9658, "\u0630\u0631\u06cc": 9659, "\u0627\u0634\u0627\u0646": 9660, "\u062a\u0638": 9661, "\u062a\u0646\u0627": 9662, "\u062d\u0631\u0645": 9663, "\u062b\u06cc": 9664, "\u062c\u0646\u0627": 9665, "\u0644\u0627\u0631": 9666, "\u0628\u062e\u0634\u0627": 9667, "\u062a\u0627\u0632": 9668, "\u062f\u0634\u0627\u0646": 9669, "\u0645\u062a\u0634": 9670, "\u0622\u0631\u0627": 9671, "\u06cc\u062f\u0627\u0646": 9672, "\u062a\u0631\u0634": 9673, "\u0622\u0645\u0648": 9674, "\u0634\u0647\u0631": 9675, "\u0641\u062a\u0633": 9676, "\u0639\u0644\u0645": 9677, "\u0627\u0646\u06af\u0627": 9678, "\u0641\u0631\u0648\u062e": 9679, "\u0631\u0622\u0645": 9680, "\u0646\u0639\u0645": 9681, "\u0628\u06a9\u0627": 9682, "\u0631\u0627\u0646\u0634": 9683, "\u0630\u06a9": 9684, "\u0635\u0627\u0631": 9685, "\u0631\u0633\u0648": 9686, "\u062d\u0635": 9687, "\u0633\u0648\u062f\u0627": 9688, "\u0636\u0645": 9689, "\u062f\u0627\u0648": 9690, "\u0646\u0637": 9691, "\u06a9\u0627\u0628": 9692, "\u0648\u0634\u0627\u0646": 9693, "\u0645\u0631\u062a": 9694, "\u0633\u0627\u0645": 9695, "\u0642\u0627\u0628": 9696, "\u0646\u0627\u0646\u0634": 9697, "\u062d\u0633\u0627": 9698, "\u0647\u0631\u0634": 9699, "\u0633\u062a\u0627\u0646\u06cc": 9700, "\u0627\u0641\u0631\u0648": 9701, "\u0631\u0647\u0627\u0646": 9702, "\u0627\u062f\u0646\u062f": 9703, "\u0646\u06a9\u0634": 9704, "\u06cc\u0635": 9705, "\u063a\u0631\u0627": 9706, "\u0642\u0627\u062a": 9707, "\u06a9\u0644\u0627": 9708, "\u0686\u0634\u0645": 9709, "\u0633\u062a\u06cc\u0645": 9710, "\u06cc\u0634\u06cc": 9711, "\u0648\u0642\u06cc": 9712, "\u062d\u062f\u06cc": 9713, "\u0648\u062a\u0631": 9714, "\u062f\u06af\u0631": 9715, "\u0632\u0628\u0627": 9716, "\u0641\u062a\u0633\u062a": 9717, "\u0645\u06cc\u062e": 9718, "\u0641\u0634\u0627\u0646\u062f": 9719, "\u0627\u06a9\u0634": 9720, "\u062f\u0627\u0632\u062f": 9721, "\u0645\u0639\u06cc": 9722, "\u0634\u0646\u0627\u0633": 9723, "\u062c\u0631\u06cc": 9724, "\u0645\u062a\u06cc": 9725, "\u062a\u0627\u0644": 9726, "\u0645\u0628\u0627": 9727, "\u06a9\u0648\u0628": 9728, "\u0639\u0631\u0627": 9729, "\u0645\u0630": 9730, "\u0644\u0645\u06cc": 9731, "\u0641\u0627\u0633": 9732, "\u06a9\u0648\u0647": 9733, "\u0628\u0631\u0627\u0641": 9734, "\u06af\u0631\u06cc\u0632": 9735, "\u0639\u0628\u0627": 9736, "\u0631\u06a9\u0646": 9737, "\u0628\u0646\u0648": 9738, "\u062e\u06cc\u0632": 9739, "\u0642\u0646\u062f": 9740, "\u0627\u0646\u062f\u0645": 9741, "\u06cc\u0644\u0633": 9742, "\u062f\u06cc\u062f\u0646": 9743, "\u0628\u0627\u0632\u06af": 9744, "\u0634\u0648\u0642": 9745, "\u0630\u0648\u0627": 9746, "\u0647\u0648\u0633": 9747, "\u06cc\u0628\u0627\u0646": 9748, "\u0644\u0627\u0645\u062a": 9749, "\u063a\u062f": 9750, "\u06cc\u0646\u0646": 9751, "\u0631\u0633\u062a\u0627\u0646": 9752, "\u0635\u0627\u062d": 9753, "\u0627\u0647\u062a": 9754, "\u0639\u0646\u0628": 9755, "\u0686\u06cc\u0646": 9756, "\u062f\u0627\u06cc\u06cc": 9757, "\u0628\u0631\u0633\u062a": 9758, "\u0622\u0648\u0631\u062f": 9759, "\u062a\u06af\u0627\u0646": 9760, "\u0686\u0646\u062f": 9761, "\u062c\u0644\u0627": 9762, "\u0627\u0645\u0645": 9763, "\u0634\u0631\u0627": 9764, "\u0627\u0647\u0633": 9765, "\u0631\u0632\u06cc": 9766, "\u0622\u0648\u0627": 9767, "\u0628\u0631\u0632": 9768, "\u062e\u0635": 9769, "\u062e\u0634\u0627\u06cc": 9770, "\u0628\u062e\u0634\u0627\u06cc": 9771, "\u0648\u06cc\u0627\u0646": 9772, "\u0648\u06cc\u0646\u062f": 9773, "\u062a\u06cc\u0633": 9774, "\u0645\u0627\u0646\u062a": 9775, "\u0627\u06cc\u0631": 9776, "\u0631\u0645\u0627\u06cc": 9777, "\u0627\u062c\u0648": 9778, "\u0646\u0647\u0645": 9779, "\u0627\u06cc\u0642": 9780, "\u067e\u0631\u062f\u0627": 9781, "\u0627\u062f\u0627\u0646": 9782, "\u0648\u062f\u0633\u062a": 9783, "\u0641\u0633\u0627": 9784, "\u0637\u06cc\u0628": 9785, "\u0639\u06cc\u0627": 9786, "\u0631\u0627\u0646\u0645": 9787, "\u0631\u0648\u0632\u06cc": 9788, "\u062d\u0645\u062f": 9789, "\u0628\u0631\u0633\u0627": 9790, "\u0631\u0648\u062e\u062a": 9791, "\u0641\u0631\u0648\u062e\u062a": 9792, "\u0646\u06cc\u062a": 9793, "\u0627\u0628\u0634\u0627": 9794, "\u0627\u0628\u0634\u0627\u0646": 9795, "\u0642\u0636": 9796, "\u067e\u0644": 9797, "\u0645\u0627\u062f": 9798, "\u067e\u06cc\u062f": 9799, "\u0634\u0645\u0627\u0631": 9800, "\u0648\u062f\u0645\u06cc": 9801, "\u0639\u0631\u0648": 9802, "\u0647\u0641": 9803, "\u0630\u0648\u0627\u0644": 9804, "\u0647\u06cc\u062f": 9805, "\u0622\u0632\u0645": 9806, "\u06cc\u06a9\u0627": 9807, "\u0627\u0645\u06cc\u062f": 9808, "\u0628\u0648\u0646": 9809, "\u06a9\u06cc\u0628": 9810, "\u06af\u0631\u062f\u0627\u0646": 9811, "\u0641\u0646\u062f": 9812, "\u0631\u062a\u06cc": 9813, "\u062f\u06cc\u0633\u062a": 9814, "\u0627\u0638": 9815, "\u0645\u06cc\u0644": 9816, "\u06a9\u0646\u0627": 9817, "\u0648\u0632\u0627": 9818, "\u0634\u0627\u0645": 9819, "\u0633\u062a\u062f": 9820, "\u0631\u06af\u0630": 9821, "\u062e\u0648\u0627\u0628": 9822, "\u062e\u0631\u0627\u0645": 9823, "\u0633\u0645\u0627\u0646": 9824, "\u06af\u0632\u0627\u0631": 9825, "\u0639\u0632\u06cc": 9826, "\u06cc\u0633\u06cc": 9827, "\u06cc\u0632\u0627": 9828, "\u062f\u0648\u0627\u0646": 9829, "\u0646\u06cc\u0631": 9830, "\u0646\u0634\u0627\u0646\u062f": 9831, "\u0634\u06a9\u0633\u062a": 9832, "\u0631\u06cc\u0631": 9833, "\u0631\u0648\u062a": 9834, "\u0632\u0628\u0627\u0646": 9835, "\u0631\u0641\u0634": 9836, "\u06af\u0648\u0634": 9837, "\u062f\u0627\u0632\u06cc": 9838, "\u0648\u062e\u062a\u0647": 9839, "\u06a9\u0645\u062a": 9840, "\u0633\u062e\u0646": 9841, "\u0646\u0627\u0642": 9842, "\u062f\u0628\u06cc": 9843, "\u0647\u0627\u0634": 9844, "\u0628\u0631\u062c": 9845, "\u0645\u0631\u063a": 9846, "\u0628\u0646\u0634": 9847, "\u0644\u0645\u0627\u0646": 9848, "\u0646\u062f\u0631\u0648": 9849, "\u06cc\u0644\u062a": 9850, "\u0639\u0630\u0631": 9851, "\u062c\u0648\u0634": 9852, "\u0641\u0627\u0644": 9853, "\u067e\u062f": 9854, "\u0645\u06a9\u0627": 9855, "\u062a\u062f\u0627": 9856, "\u0633\u0631\u06cc": 9857, "\u0631\u0634\u06a9": 9858, "\u0633\u0644\u0645": 9859, "\u0646\u0645\u0648\u062f": 9860, "\u06af\u0627\u0647\u06cc": 9861, "\u0633\u062a\u0642": 9862, "\u06cc\u0632\u0646\u062f": 9863, "\u0648\u0634\u0646\u062f": 9864, "\u0635\u0644\u0627": 9865, "\u06cc\u062f\u06cc\u0645": 9866, "\u0631\u062e\u06cc": 9867, "\u0641\u0631\u06cc\u0628": 9868, "\u0646\u06af\u0648": 9869, "\u062e\u0634\u06cc": 9870, "\u0627\u0698": 9871, "\u0648\u0642\u062a": 9872, "\u0645\u06cc\u0633": 9873, "\u06cc\u0631\u0646": 9874, "\u0628\u0631\u06cc\u062f": 9875, "\u0648\u06cc\u0633\u062a": 9876, "\u0633\u06cc\u0646": 9877, "\u0641\u0631\u06cc\u062f": 9878, "\u0645\u0627\u0646\u0645": 9879, "\u0627\u0647\u0633\u062a": 9880, "\u06a9\u0627\u0648": 9881, "\u0648\u063a": 9882, "\u0644\u0627\u0647": 9883, "\u0628\u0627\u062e": 9884, "\u0641\u0631\u0634": 9885, "\u0632\u062f\u0647": 9886, "\u0631\u0633\u0646": 9887, "\u0645\u0646\u0634": 9888, "\u0635\u0627\u0641": 9889, "\u0627\u0641\u0632": 9890, "\u0632\u0648\u0646": 9891, "\u0633\u0631\u0634": 9892, "\u0633\u067e\u0647": 9893, "\u0686\u0645": 9894, "\u0636\u0639": 9895, "\u0633\u0631\u0627\u0646": 9896, "\u0644\u06cc\u062a": 9897, "\u0634\u0648\u062f": 9898, "\u06cc\u0637": 9899, "\u0628\u0627\u0632\u0627": 9900, "\u062f\u0648\u062e": 9901, "\u0627\u0646\u062f\u0648": 9902, "\u0639\u062c\u0628": 9903, "\u0646\u0634\u06cc\u0646": 9904, "\u062c\u0645\u0627": 9905, "\u0627\u062a\u0634": 9906, "\u062e\u0633\u062a": 9907, "\u062e\u0634\u0646": 9908, "\u0645\u0639\u0631": 9909, "\u067e\u06cc\u0645\u0627": 9910, "\u0635\u0641\u0627": 9911, "\u0641\u06af\u0646\u062f": 9912, "\u062f\u0631\u06cc\u0627": 9913, "\u0633\u0627\u0628": 9914, "\u0642\u06cc\u0645": 9915, "\u0627\u0642\u0627": 9916, "\u062f\u0645\u0634": 9917, "\u0627\u0632\u0633": 9918, "\u0627\u0641\u0634\u0627": 9919, "\u0632\u0645\u0648": 9920, "\u062f\u06a9\u0627": 9921, "\u0647\u0627\u0633": 9922, "\u0647\u0627\u0633\u062a": 9923, "\u0631\u0646\u0627": 9924, "\u0627\u0631\u0647\u0627": 9925, "\u0627\u0627\u0644": 9926, "\u062b\u0645": 9927, "\u0648\u0636": 9928, "\u062f\u0648\u0627\u0631": 9929, "\u0632\u0631\u0627": 9930, "\u0628\u0627\u0637": 9931, "\u0633\u0633": 9932, "\u0648\u0645\u0627": 9933, "\u062a\u0627\u0641": 9934, "\u0628\u0633\u062a\u0627\u0646": 9935, "\u0648\u06cc\u062a": 9936, "\u06af\u06cc\u0633": 9937, "\u0644\u0628\u0646": 9938, "\u0648\u0634\u062f": 9939, "\u062a\u0631\u062f": 9940, "\u0644\u062b": 9941, "\u0644\u0627\u0634": 9942, "\u0644\u062c\u0648": 9943, "\u0645\u0648\u0631": 9944, "\u0628\u0628\u0627": 9945, "\u0631\u0645\u0634": 9946, "\u06cc\u0648\u0634": 9947, "\u0639\u0627\u0644\u0645": 9948, "\u0627\u062f\u06af": 9949, "\u06af\u0648\u0631": 9950, "\u0627\u0634\u062a\u06cc": 9951, "\u0632\u0627\u06cc\u06cc": 9952, "\u0622\u062f\u0645": 9953, "\u0639\u0645\u0627": 9954, "\u062c\u0646\u0628": 9955, "\u0646\u062c\u0645": 9956, "\u0644\u0645\u0646": 9957, "\u0628\u06cc\u0644": 9958, "\u0631\u0628\u0627\u06cc": 9959, "\u0631\u0627\u062d": 9960, "\u0635\u0637": 9961, "\u062f\u0648\u062e\u062a": 9962, "\u0642\u06cc\u0642": 9963, "\u0648\u0644\u0648": 9964, "\u0633\u062a\u0627\u0631": 9965, "\u0631\u06af\u0633": 9966, "\u0631\u06cc\u062a": 9967, "\u0648\u0630": 9968, "\u0631\u06cc\u062f\u0646": 9969, "\u0636\u0627\u06cc": 9970, "\u0639\u0636": 9971, "\u0627\u0632\u0633\u062a": 9972, "\u062e\u0627\u0633": 9973, "\u0627\u0641\u0634\u0627\u0646": 9974, "\u0645\u0633\u06cc": 9975, "\u0632\u06cc\u0628": 9976, "\u0632\u0631\u06af": 9977, "\u06a9\u0646\u0645": 9978, "\u0639\u0638": 9979, "\u067e\u0648\u0634\u06cc": 9980, "\u0628\u062a\u06cc": 9981, "\u0648\u0631\u06cc\u062f": 9982, "\u0631\u0645\u0633\u062a": 9983, "\u0645\u0648\u0644": 9984, "\u0644\u062d\u0627": 9985, "\u0631\u0622\u0646": 9986, "\u0628\u06af\u0634": 9987, "\u06cc\u062d\u062a": 9988, "\u0646\u062f\u06cc\u0645": 9989, "\u0627\u0646\u062c\u0627": 9990, "\u0631\u0637": 9991, "\u0631\u0645\u062a": 9992, "\u062a\u0627\u0641\u062a": 9993, "\u0646\u06a9\u0631": 9994, "\u0686\u0646\u0627": 9995, "\u0632\u06cc\u0627": 9996, "\u0631\u0635": 9997, "\u067e\u0627\u062f": 9998, "\u0628\u06cc\u0634": 9999}, "words": {"__pad": 0, "__extra3": 1, "__style2": 2, "__style1": 3, "__style6": 4, "__extra4": 5, "__extra2": 6, "__style3": 7, "__style4": 8, "__style5": 9, "__extra1": 10, "__unk": 11, "\\": 12, "\u0648": 13, "\u0628\u0647": 14, "\u0627\u0632": 15, "\u06a9\u0647": 16, "\u062f\u0631": 17, "\u062a\u0648": 18, "\u0631\u0627": 19, "\u0628\u0631": 20, "\u0632": 21, "\u0686\u0648\u0646": 22, "\u0645\u0646": 23, "\u0622\u0646": 24, "\u0627\u0648": 25, "\u0627\u0633\u062a": 26, "\u0686\u0648": 27, "\u0627\u06cc": 28, "\u062f\u0644": 29, "\u062a\u0627": 30, "\u0627\u06cc\u0646": 31, "\u0645\u06cc": 32, "\u0686\u0647": 33, "\u0633\u0631": 34, "\u0628\u0627": 35, "\u0647\u0631": 36, "\u0628\u0648\u062f": 37, "\u062c\u0627\u0646": 38, "\u06af\u0631": 39, "\u0646\u0647": 40, "\u0628\u06cc": 41, "\u0647\u0645\u0647": 42, "\u062f\u0633\u062a": 43, "\u0645\u0627": 44, "\u0646\u06cc\u0633\u062a": 45, "\u0647\u0645": 46, "\u0631\u0648\u06cc": 47, "\u0634\u062f": 48, "\u062e\u0648\u062f": 49, "\u062f\u0648": 50, "\u06a9\u0646\u062f": 51, "\u06a9\u0631\u062f": 52, "\u0639\u0634\u0642": 53, "\u0627\u0646\u062f\u0631": 54, "\u0622\u0628": 55, "\u06cc\u06a9": 56, "\u06a9\u0632": 57, "\u062c\u0647\u0627\u0646": 58, "\u0628\u0627\u0634\u062f": 59, "\u067e\u06cc\u0634": 60, "\u0645\u0631\u0627": 61, "\u0686\u0634\u0645": 62, "\u0628\u0627\u062f": 63, "\u0627\u06af\u0631": 64, "\u062e\u0627\u06a9": 65, "\u06a9\u0646": 66, "\u0631\u0648\u0632": 67, "\u062f\u06cc\u062f\u0647": 68, "\u0647\u0645\u06cc": 69, "\u0639\u0642\u0644": 70, "\u062f\u06cc\u0646": 71, "\u06af\u0641\u062a": 72, "\u06a9\u0633": 73, "\u0628\u0627\u0632": 74, "\u0647\u0633\u062a": 75, "\u0634\u0628": 76, "\u062c\u0632": 77, "\u0622\u062a\u0634": 78, "\u067e\u0627\u06cc": 79, "\u063a\u0645": 80, "\u0645\u0644\u06a9": 81, "\u0634\u0648\u062f": 82, "\u06a9\u0627\u0631": 83, "\u0639\u0627\u0644\u0645": 84, "\u062f\u0648\u0633\u062a": 85, "\u062f\u0627\u0631\u062f": 86, "\u067e\u0633": 87, "\u062e\u0648\u06cc\u0634": 88, "\u067e\u06cc": 89, "\u0622\u0645\u062f": 90, "\u0645\u0631\u062f": 91, "\u0631\u0627\u0647": 92, "\u06af\u0644": 93, "\u062e\u0648\u0646": 94, "\u06cc\u0627": 95, "\u0641\u0644\u06a9": 96, "\u06a9\u0631\u062f\u0647": 97, "\u0633\u062e\u0646": 98, "\u0628\u0647\u0631": 99, "\u067e\u0631": 100, "\u0647\u06cc\u0686": 101, "\u0647\u0645\u0686\u0648": 102, "\u0631\u0647": 103, "\u0622\u06cc\u062f": 104, "\u0628\u0633": 105, "\u062f\u0645": 106, "\u062a\u0646": 107, "\u0632\u0627\u0646": 108, "\u0632\u06cc\u0646": 109, "\u0634\u0627\u0647": 110, "\u0628\u062f": 111, "\u062e\u0644\u0642": 112, "\u06cc\u06a9\u06cc": 113, "\u062a\u0631\u0627": 114, "\u0686\u0631\u062e": 115, "\u0639\u0645\u0631": 116, "\u0633\u0648\u06cc": 117, "\u06a9\u06cc": 118, "\u0627\u0645": 119, "\u0635\u0628\u062d": 120, "\u0686\u0646\u06cc\u0646": 121, "\u0627\u0646\u062f": 122, "\u0648\u0632": 123, "\u0632\u0631": 124, "\u06a9\u0648": 125, "\u0646\u0645\u06cc": 126, "\u062e\u0648\u0634": 127, "\u06cc\u0627\u0631": 128, "\u0632\u06cc\u0631": 129, "\u06a9\u0646\u06cc": 130, "\u062e\u0627\u0646\u0647": 131, "\u0645\u06cc\u0627\u0646": 132, "\u0627\u0631": 133, "\u0646\u0641\u0633": 134, "\u062f\u0631\u062f": 135, "\u0648\u0631": 136, "\u062d\u0642": 137, "\u0646\u0627\u0645": 138, "\u0627\u0648\u0633\u062a": 139, "\u06af\u0647": 140, "\u0645\u0627\u0647": 141, "\u0628\u0627\u0631": 142, "\u062f\u06af\u0631": 143, "\u0644\u0628": 144, "\u06a9\u0633\u06cc": 145, "\u0635\u062f": 146, "\u062c\u0627\u06cc": 147, "\u062e\u0627\u0642\u0627\u0646\u06cc": 148, "\u0632\u0646": 149, "\u0648\u06cc": 150, "\u0633\u0639\u062f\u06cc": 151, "\u0622\u0646\u06a9\u0647": 152, "\u0634\u062f\u0647": 153, "\u0632\u0628\u0627\u0646": 154, "\u06a9\u0645": 155, "\u062f\u0627\u0631\u06cc": 156, "\u0628\u0631\u062f": 157, "\u0628\u0627\u06cc\u062f": 158, "\u06af\u0631\u062f": 159, "\u0622\u0633\u0645\u0627\u0646": 160, "\u0639\u0644\u0645": 161, "\u062a\u06cc\u063a": 162, "\u0645\u06a9\u0646": 163, "\u0646\u0628\u0648\u062f": 164, "\u0632\u0644\u0641": 165, "\u062e\u0631\u062f": 166, "\u0632\u0645\u06cc\u0646": 167, "\u0686\u0646\u0627\u0646": 168, "\u062f\u0627\u062f": 169, "\u06a9\u0646\u0645": 170, "\u062a\u0631": 171, "\u062f\u0627\u0631": 172, "\u0628\u0627\u0634": 173, "\u062f\u0648\u0644\u062a": 174, "\u0645\u0647\u0631": 175, "\u06a9\u0639\u0628\u0647": 176, "\u06af\u0634\u062a": 177, "\u0647\u0632\u0627\u0631": 178, "\u0634\u06a9\u0631": 179, "\u0686\u0646\u062f": 180, "\u06af\u0631\u062f\u062f": 181, "\u0646\u0628\u0627\u0634\u062f": 182, "\u06af\u0648\u06cc\u06cc": 183, "\u06af\u0648\u0634": 184, "\u0622\u0641\u062a\u0627\u0628": 185, "\u0628\u06cc\u0646\u06cc": 186, "\u062f\u0647": 187, "\u062e\u0648\u0627\u0647\u06cc": 188, "\u0645\u06af\u0631": 189, "\u0631\u0627\u0633\u062a": 190, "\u0628\u0646\u062f": 191, "\u0632\u0645\u0627\u0646": 192, "\u0631\u0641\u062a": 193, "\u0633\u0646\u0627\u06cc\u06cc": 194, "\u0622\u062e\u0631": 195, "\u0628\u0646\u062f\u0647": 196, "\u062e\u062f\u0627\u06cc": 197, "\u0631\u0646\u06af": 198, "\u0631\u062e": 199, "\u0646\u06cc\u06a9": 200, "\u0635\u0648\u0631\u062a": 201, "\u0646\u0638\u0631": 202, "\u0645\u0627\u0646\u062f": 203, "\u0628\u0631\u0648\u0646": 204, "\u062f\u0648\u0631": 205, "\u0645\u0631": 206, "\u0627\u0632\u06cc\u0646": 207, "\u0628\u0648\u06cc": 208, "\u0633\u062a": 209, "\u0631\u0648\u062d": 210, "\u06a9\u0627\u0646": 211, "\u0634\u06cc\u0631": 212, "\u06af\u0627\u0647": 213, "\u067e\u0631\u062f\u0647": 214, "\u0645\u0647": 215, "\u0628\u0631\u0627\u06cc": 216, "\u06a9\u062c\u0627": 217, "\u0633\u0646\u06af": 218, "\u0637\u0628\u0639": 219, "\u0646\u0642\u0634": 220, "\u0642\u062f\u0631": 221, "\u0647\u0641\u062a": 222, "\u0631\u0648\u0632\u06cc": 223, "\u062f\u0627\u0631\u0645": 224, "\u0622\u0645\u062f\u0647": 225, "\u062e\u0648\u0631\u0634\u06cc\u062f": 226, "\u0647\u0627": 227, "\u062f\u0647\u062f": 228, "\u0645\u0639\u0646\u06cc": 229, "\u0648\u0642\u062a": 230, "\u0646\u0648\u0631": 231, "\u062f\u06cc\u062f": 232, "\u0645\u0631\u062f\u0645": 233, "\u062d\u0627\u0644": 234, "\u0628\u06cc\u0646": 235, "\u0631\u0648\u0627\u0646": 236, "\u062e\u0648\u06cc\u0634\u062a\u0646": 237, "\u0627\u0647\u0644": 238, "\u062e\u0648\u0627\u0647\u062f": 239, "\u0631\u0648\u062f": 240, "\u0628\u062e\u062a": 241, "\u062a\u06cc\u0631": 242, "\u0631\u0627\u06cc": 243, "\u0646\u062f\u0627\u0631\u062f": 244, "\u062f\u0634\u0645\u0646": 245, "\u062e\u0648\u0627\u0646": 246, "\u062e\u0648\u0627\u0628": 247, "\u062e\u0637": 248, "\u062f\u0644\u0645": 249, "\u0622\u0646\u06a9": 250, "\u062f\u0627\u0646": 251, "\u0628\u0627\u063a": 252, "\u06af\u0648\u06cc\u062f": 253, "\u0641\u0631\u0648": 254, "\u0646\u06cc": 255, "\u06a9\u0648\u06cc": 256, "\u0633\u0627\u06cc\u0647": 257, "\u0627\u0645\u06cc\u062f": 258, "\u0645\u0631\u063a": 259, "\u0628\u0633\u062a\u0647": 260, "\u0647\u0631\u06af\u0632": 261, "\u0686\u0631\u0627": 262, "\u0628\u06cc\u0634": 263, "\u062e\u0648\u0631\u062f": 264, "\u06af\u0648\u0647\u0631": 265, "\u062c\u0627\u0645": 266, "\u0635\u0628\u0631": 267, "\u06af\u0648": 268, "\u0646\u0627\u0646": 269, "\u0647\u0627\u06cc": 270, "\u0633\u06af": 271, "\u0633\u0631\u0648": 272, "\u06a9\u0631\u062f\u06cc": 273, "\u0644\u0637\u0641": 274, "\u0639\u0627\u0634\u0642": 275, "\u06af\u0631\u0686\u0647": 276, "\u0631\u0633\u062f": 277, "\u0632\u0646\u062f": 278, "\u06a9\u0646\u0646\u062f": 279, "\u062e\u0628\u0631": 280, "\u062e\u0648\u0627\u062c\u0647": 281, "\u06a9\u0627\u0645": 282, "\u06cc\u0627\u062f": 283, "\u0646\u0648": 284, "\u067e\u06cc\u0631": 285, "\u0632\u0645\u0627\u0646\u0647": 286, "\u0633\u0644\u0637\u0627\u0646": 287, "\u0631\u0648\u0632\u06af\u0627\u0631": 288, "\u062a\u0633\u062a": 289, "\u062f\u0627\u0646\u062f": 290, "\u06a9\u0641": 291, "\u0648\u0627\u0631": 292, "\u062e\u0648\u0627\u0647\u0645": 293, "\u0639\u062c\u0628": 294, "\u06af\u0646\u062c": 295, "\u06a9\u0631\u0645": 296, "\u0627\u0644\u0644\u0647": 297, "\u0646\u062a\u0648\u0627\u0646": 298, "\u0646\u0645\u0627\u0646\u062f": 299, "\u067e\u0634\u062a": 300, "\u062f\u0627\u0646\u06cc": 301, "\u0622\u0648\u0631\u062f": 302, "\u062e\u0648\u0631": 303, "\u0647\u0648\u0627": 304, "\u06af\u0641\u062a\u0645": 305, "\u06af\u06cc\u0631": 306, "\u067e\u0633\u0631": 307, "\u062f\u0646\u06cc\u0627": 308, "\u0627\u0632\u0648": 309, "\u062c\u0645\u0627\u0644": 310, "\u0633\u0631\u0627\u06cc": 311, "\u0648\u0641\u0627": 312, "\u0622\u062f\u0645": 313, "\u06af\u0648\u06cc": 314, "\u0633\u0627\u0644": 315, "\u0637\u0644\u0628": 316, "\u0646\u0647\u0627\u062f": 317, "\u06af\u0631\u062f\u0648\u0646": 318, "\u062f\u06cc\u0648": 319, "\u06a9\u0627\u06cc\u0646": 320, "\u062f\u0648\u0633\u062a\u0627\u0646": 321, "\u0639\u062f\u0644": 322, "\u0627\u0645\u0631\u0648\u0632": 323, "\u062d\u0644\u0642\u0647": 324, "\u0631\u0646\u062c": 325, "\u062f\u0627\u0645\u0646": 326, "\u0686\u0627\u0631": 327, "\u062c\u0645\u0644\u0647": 328, "\u0646\u06a9\u0646\u062f": 329, "\u062f\u0627\u0634\u062a": 330, "\u06a9\u0648\u0647": 331, "\u062d\u06a9\u0645": 332, "\u0622\u0647": 333, "\u067e\u0627\u06a9": 334, "\u062d\u0633\u0646": 335, "\u0633\u06cc\u0645": 336, "\u0639\u0644\u06cc": 337, "\u0634\u0647": 338, "\u0634\u0631\u0639": 339, "\u0628\u062d\u0631": 340, "\u0639\u06cc\u0633\u06cc": 341, "\u0631\u0648": 342, "\u0686\u06cc\u0633\u062a": 343, "\u062a\u0627\u0632\u0647": 344, "\u0645\u0627\u0644": 345, "\u0645\u0631\u06af": 346, "\u0628\u062f\u0627\u0646": 347, "\u06cc\u0627\u0641\u062a": 348, "\u0622\u0646\u0686\u0647": 349, "\u0632\u0646\u062f\u0647": 350, "\u062f\u0647\u0627\u0646": 351, "\u06af\u0634\u062a\u0647": 352, "\u062f\u06cc\u06af\u0631": 353, "\u0634\u0645\u0639": 354, "\u0628\u062f\u06cc\u0646": 355, "\u0646\u06cc\u0632": 356, "\u0639\u0647\u062f": 357, "\u0634\u0648\u06cc": 358, "\u06af\u0631\u0641\u062a": 359, "\u0633\u0647": 360, "\u062a\u0627\u062c": 361, "\u062a\u0648\u0627\u0646": 362, "\u062a\u0648\u0633\u062a": 363, "\u062c\u0627\u0647": 364, "\u0644\u06cc\u06a9": 365, "\u0641\u0636\u0644": 366, "\u0647\u0645\u062a": 367, "\u0634\u0627\u062e": 368, "\u062a\u0648\u06cc\u06cc": 369, "\u0646\u062f\u0627\u0631\u0645": 370, "\u0634\u0639\u0631": 371, "\u0645\u0634\u06a9": 372, "\u062f\u0631\u06cc\u0627": 373, "\u0622\u0646\u062c\u0627": 374, "\u0646\u0632\u062f": 375, "\u062e\u0631": 376, "\u0646\u06cc\u0627\u06cc\u062f": 377, "\u062d\u062f\u06cc\u062b": 378, "\u062e\u0648\u06cc": 379, "\u0627\u0648\u0644": 380, "\u0645\u0633\u062a": 381, "\u062c\u0627\u0645\u0647": 382, "\u0648\u0635\u0644": 383, "\u0632\u0627\u0646\u06a9\u0647": 384, "\u0633\u062d\u0631": 385, "\u0627\u0628\u0631": 386, "\u0632\u062f": 387, "\u0645\u0627\u0631": 388, "\u062c\u0648\u06cc": 389, "\u0646\u0647\u0627\u0646": 390, "\u0641\u062a\u0646\u0647": 391, "\u06a9\u0631\u062f\u0645": 392, "\u062f\u0644\u06cc": 393, "\u062e\u062f\u0645\u062a": 394, "\u0644\u0639\u0644": 395, "\u06a9\u0634": 396, "\u062f\u0627\u0645": 397, "\u062c\u06af\u0631": 398, "\u0634\u06cc\u0631\u06cc\u0646": 399, "\u0648\u06af\u0631": 400, "\u0646\u0634\u0627\u0646": 401, "\u06a9\u0634\u062f": 402, "\u0645\u0631\u062f\u0627\u0646": 403, "\u0628\u0647\u0634\u062a": 404, "\u0634\u0647\u0631": 405, "\u0639\u0627\u0634\u0642\u0627\u0646": 406, "\u0642\u062f\u0645": 407, "\u062e\u0627\u0637\u0631": 408, "\u062e\u0635\u0645": 409, "\u062e\u0627\u0631": 410, "\u062f\u0647\u0631": 411, "\u062f\u0631\u0648\u0646": 412, "\u062c\u0648\u0631": 413, "\u06af\u0648\u06cc\u0645": 414, "\u0639\u06cc\u062f": 415, "\u0647\u0631\u06a9\u0647": 416, "\u0635\u062f\u0631": 417, "\u0633\u0648\u062f": 418, "\u0647\u0631\u0686\u0647": 419, "\u06af\u0631\u062f\u0646": 420, "\u067e\u062f\u0631": 421, "\u0645\u0627\u0646\u062f\u0647": 422, "\u06cc\u0648\u0633\u0641": 423, "\u062e\u0645": 424, "\u0628\u0631\u0622\u0645\u062f": 425, "\u0635\u0627\u062d\u0628": 426, "\u0646\u06cc\u0645": 427, "\u062f\u0631\u06cc\u0646": 428, "\u06a9\u0631\u062f\u0646": 429, "\u06a9\u0646\u0648\u0646": 430, "\u0628\u06cc\u0645": 431, "\u0628\u0648\u062f\u06cc": 432, "\u0628\u0631\u0648": 433, "\u0632\u0647\u0631": 434, "\u0627\u0644\u0627": 435, "\u0641\u06cc": 436, "\u0632\u0648": 437, "\u0628\u0633\u06cc": 438, "\u0622\u062f\u0645\u06cc": 439, "\u0628\u0627\u0631\u06cc": 440, "\u06af\u0641\u062a\u06cc": 441, "\u0631\u0627\u0632": 442, "\u0627\u06a9\u0646\u0648\u0646": 443, "\u0645\u0627\u06cc\u0647": 444, "\u062c\u0641\u0627": 445, "\u062e\u06cc\u0627\u0644": 446, "\u0634\u0648": 447, "\u06a9\u0645\u0627\u0646": 448, "\u0628\u06cc\u0646\u062f": 449, "\u0646\u0634\u0648\u062f": 450, "\u0633\u06cc\u0646\u0647": 451, "\u0622\u0631\u062f": 452, "\u062f\u0646\u062f\u0627\u0646": 453, "\u0628\u06cc\u0631\u0648\u0646": 454, "\u0642\u0648\u062a": 455, "\u0645\u0648\u06cc": 456, "\u0628\u0627\u062f\u0647": 457, "\u0633\u06cc\u0627\u0647": 458, "\u0686\u0646\u06af": 459, "\u0645\u0628\u0627\u0634": 460, "\u0646\u0645\u0627\u06cc\u062f": 461, "\u0635\u0641\u062a": 462, "\u0646\u0627\u0645\u0647": 463, "\u0622\u06cc\u0646\u0647": 464, "\u06a9\u0641\u0631": 465, "\u062e\u0631\u0627\u0633\u0627\u0646": 466, "\u0628\u062a": 467, "\u06af\u0647\u0631": 468, "\u0645\u06cc\u062f\u0627\u0646": 469, "\u0641\u0631\u0645\u0627\u0646": 470, "\u0628\u0631\u06af": 471, "\u0637\u0645\u0639": 472, "\u0628\u0627\u0634\u06cc": 473, "\u0647\u0645\u0686\u0648\u0646": 474, "\u062f\u06cc\u062f\u0645": 475, "\u0647\u0646\u0648\u0632": 476, "\u0627\u06cc\u0645\u0627\u0646": 477, "\u0622\u0631\u06cc": 478, "\u0648\u06cc\u0646": 479, "\u062f\u0627\u0634\u062a\u0646": 480, "\u0633\u06cc\u0647": 481, "\u0648\u062c\u0648\u062f": 482, "\u062a\u0646\u06af": 483, "\u0632\u062e\u0645": 484, "\u0632\u0646\u06cc": 485, "\u0628\u0627\u0646\u06af": 486, "\u0647\u0646\u0631": 487, "\u062c\u0648\u062f": 488, "\u0628\u0639\u062f": 489, "\u0646\u06a9\u0648": 490, "\u0627\u0634\u06a9": 491, "\u06a9\u06cc\u0646": 492, "\u0633\u062e\u062a": 493, "\u0645\u0646\u0645": 494, "\u0628\u0645\u0627\u0646\u062f": 495, "\u062c\u0627": 496, "\u062e\u0648\u0627\u0631": 497, "\u0632\u0647\u0631\u0647": 498, "\u062f\u0627\u062f\u0647": 499, "\u0686\u0634\u0645\u0647": 500, "\u0632\u0634\u062a": 501, "\u0628\u06cc\u0646\u0645": 502, "\u0631\u0648\u0634\u0646": 503, "\u0639\u06cc\u0628": 504, "\u0645\u0631\u062f\u06cc": 505, "\u0642\u0644\u0645": 506, "\u06af\u0631\u0645": 507, "\u0645\u062c\u0644\u0633": 508, "\u0628\u0648\u0633\u0647": 509, "\u062a\u0631\u06a9": 510, "\u06af\u0641\u062a\u0647": 511, "\u0628\u0627\u0634\u0645": 512, "\u0628\u0648\u062f\u0647": 513, "\u0627\u06cc\u0634\u0627\u0646": 514, "\u0631\u0633\u06cc\u062f": 515, "\u0645\u0627\u0647\u06cc": 516, "\u062e\u062f\u0627": 517, "\u0642\u0636\u0627": 518, "\u062e\u0634\u06a9": 519, "\u0628\u062f\u0648": 520, "\u06a9\u0645\u0627\u0644": 521, "\u0628\u0633\u062a": 522, "\u062f\u0631\u06cc\u063a": 523, "\u062a\u062e\u062a": 524, "\u0628\u0627\u0645": 525, "\u0627\u06cc\u0627\u0645": 526, "\u0633\u06cc\u0631": 527, "\u0628\u0631\u0622\u06cc\u062f": 528, "\u0627\u0633\u0628": 529, "\u062f\u0648\u0634": 530, "\u06a9\u0646\u0627\u0631": 531, "\u062f\u0627\u0646\u0645": 532, "\u067e\u0631\u06cc": 533, "\u06cc\u0627\u0628\u0645": 534, "\u0633\u0627\u0632": 535, "\u0627\u06cc\u0645": 536, "\u0644\u0627": 537, "\u0631\u0641\u062a\u0647": 538, "\u06af\u06cc\u062a\u06cc": 539, "\u0628\u0631\u0627\u0641\u06a9\u0646\u062f": 540, "\u062e\u06cc\u0631": 541, "\u0646\u06cc\u0627\u0632": 542, "\u062f\u0631\u0648\u06cc\u0634": 543, "\u0628\u0631\u06cc": 544, "\u062f\u0627\u0646\u0647": 545, "\u0635\u06cc\u062f": 546, "\u0634\u0627\u06cc\u062f": 547, "\u0634\u0645\u0634\u06cc\u0631": 548, "\u0641\u0631\u0627\u0642": 549, "\u062e\u0634\u0645": 550, "\u0628\u0633\u06cc\u0627\u0631": 551, "\u0633\u067e\u06cc\u062f": 552, "\u0645\u0646\u0632\u0644": 553, "\u0645\u062f\u0627\u0631": 554, "\u0646\u0627\u0644\u0647": 555, "\u0628\u0644\u0628\u0644": 556, "\u0648\u0644\u06cc": 557, "\u0639\u0627\u0634\u0642\u06cc": 558, "\u06a9\u0627\u0646\u062f\u0631": 559, "\u0686\u0647\u0631\u0647": 560, "\u0638\u0644\u0645": 561, "\u06a9\u06cc\u0633\u062a": 562, "\u06a9\u0645\u0631": 563, "\u0627\u062c\u0644": 564, "\u06af\u0648\u06cc\u0646\u062f": 565, "\u0646\u0648\u0634": 566, "\u0648\u0644\u06cc\u06a9\u0646": 567, "\u0648\u0631\u0627": 568, "\u0645\u062f\u062d": 569, "\u062f\u0639\u0648\u06cc": 570, "\u067e\u0646\u062c": 571, "\u06cc\u0627\u0631\u0628": 572, "\u0632\u0627\u0631": 573, "\u062f\u0627\u0646\u0634": 574, "\u0648\u0631\u0646\u0647": 575, "\u0647\u0633\u062a\u06cc": 576, "\u0628\u0646": 577, "\u062f\u0647\u06cc": 578, "\u0628\u0647\u0627\u0631": 579, "\u0644\u06cc\u06a9\u0646": 580, "\u0622\u0648\u0631\u062f\u0647": 581, "\u0631\u062d\u0645\u062a": 582, "\u0628\u0644\u0627": 583, "\u062f\u0648\u0633\u062a\u06cc": 584, "\u0628\u0633\u062a\u0627\u0646": 585, "\u0646\u06cc\u0627\u0628\u06cc": 586, "\u0645\u0627\u0633\u062a": 587, "\u0628\u0628\u06cc\u0646\u0645": 588, "\u062c\u0648": 589, "\u0645\u0631\u062f\u0647": 590, "\u0646\u06af\u0631": 591, "\u0645\u0627\u062f\u0631": 592, "\u0622\u0648\u0627\u0632": 593, "\u0634\u0645\u0627": 594, "\u0635\u062f\u0642": 595, "\u0647\u0648\u0627\u06cc": 596, "\u0639\u06cc\u0646": 597, "\u0647\u0648\u0633": 598, "\u0686\u0646\u062f\u0627\u0646": 599, "\u062e\u0648\u0628": 600, "\u06af\u0645": 601, "\u06af\u06cc\u0631\u062f": 602, "\u0644\u0627\u0644\u0647": 603, "\u06af\u0631\u0627\u0646": 604, "\u0633\u0648\u0632": 605, "\u0631\u0648\u0632\u0647": 606, "\u0628\u062f\u06cc": 607, "\u062e\u0636\u0631": 608, "\u0645\u0648\u0633\u06cc": 609, "\u062f\u0631\u062e\u062a": 610, "\u0634\u062f\u06cc": 611, "\u0686\u0627\u0647": 612, "\u062f\u06cc\u062f\u0627\u0631": 613, "\u062c\u0646\u06af": 614, "\u0628\u063a\u062f\u0627\u062f": 615, "\u0634\u0631\u0637": 616, "\u0632\u0648\u062f": 617, "\u0639\u0632": 618, "\u0634\u0631\u0641": 619, "\u0634\u0627\u062f\u06cc": 620, "\u0627\u0635\u0644": 621, "\u062f\u0631\u0645": 622, "\u062d\u0631\u0641": 623, "\u0634\u0631\u0627\u0628": 624, "\u0642\u062f": 625, "\u0628\u0631\u062f\u0647": 626, "\u0633\u067e\u0647\u0631": 627, "\u06af\u0641\u062a\u0646": 628, "\u0644\u0627\u0641": 629, "\u0646\u06af\u0647": 630, "\u062c\u0627\u0646\u0627\u0646": 631, "\u0634\u062f\u0645": 632, "\u062a\u0648\u0628\u0647": 633, "\u06af\u0641\u062a\u0627\u0631": 634, "\u0644\u0627\u062c\u0631\u0645": 635, "\u0635\u0641": 636, "\u0646\u0631\u0633\u062f": 637, "\u0622\u0632": 638, "\u0686\u06cc\u0646": 639, "\u0642\u0628\u0644\u0647": 640, "\u0644\u0634\u06a9\u0631": 641, "\u0633\u0627\u0632\u062f": 642, "\u06a9\u0634\u062a\u06cc": 643, "\u0634\u0627\u0645": 644, "\u0686\u0631\u0627\u063a": 645, "\u062f\u0627\u063a": 646, "\u062a\u06cc\u0632": 647, "\u0633\u0648\u062e\u062a\u0647": 648, "\u0646\u0639\u0645\u062a": 649, "\u0635\u062f\u0641": 650, "\u062d\u0648\u0631": 651, "\u0628\u06cc\u0646\u0646\u062f": 652, "\u062d\u06cc\u0627\u062a": 653, "\u062a\u0648\u0627\u0645": 654, "\u067e\u062f\u06cc\u062f": 655, "\u062d\u0631\u0635": 656, "\u0646\u0627\u0631": 657, "\u0633\u067e\u0631": 658, "\u067e\u0646\u0647\u0627\u0646": 659, "\u0646\u0645\u0627\u0632": 660, "\u0628\u0642\u0627": 661, "\u0648\u0627\u0646": 662, "\u0646\u062f\u0627\u0631\u06cc": 663, "\u062d\u0627\u0635\u0644": 664, "\u062d\u062f": 665, "\u0631\u0648\u0645": 666, "\u0641\u0631\u06cc\u0627\u062f": 667, "\u0642\u06cc\u0627\u0645\u062a": 668, "\u0627\u0646\u062f\u06cc\u0634\u0647": 669, "\u0642\u0628\u0648\u0644": 670, "\u0633\u0639\u062f\u06cc\u0627": 671, "\u0627\u0646\u062f\u0631\u06cc\u0646": 672, "\u062e\u0648\u0627\u0646\u062f": 673, "\u062f\u0648\u062f": 674, "\u0634\u0631\u0645": 675, "\u0632\u062f\u0647": 676, "\u0641\u0631\u0642": 677, "\u063a\u0645\u0632\u0647": 678, "\u0628\u0627\u0632\u0627\u0631": 679, "\u0627\u0646\u06af\u0634\u062a": 680, "\u0646\u062f\u06cc\u062f\u0647": 681, "\u0645\u0647\u0631\u0647": 682, "\u062e\u0633\u0631\u0648": 683, "\u0647\u0645\u06cc\u0634\u0647": 684, "\u0647\u0645\u0627\u0646": 685, "\u0631\u06cc\u062e\u062a\u0647": 686, "\u0646\u0647\u0627\u062f\u0647": 687, "\u062f\u0648\u0632\u062e": 688, "\u0631\u062e\u062a": 689, "\u062a\u0634\u0646\u0647": 690, "\u0637\u0641\u0644": 691, "\u062e\u062f\u0627\u0648\u0646\u062f": 692, "\u062e\u06cc\u0631\u0647": 693, "\u0639\u0631\u0634": 694, "\u0627\u0641\u0634\u0627\u0646\u062f\u0647": 695, "\u0634\u0648\u0645": 696, "\u062d\u06a9\u0645\u062a": 697, "\u06a9\u0634\u062a\u0647": 698, "\u0648\u0644\u06cc\u06a9": 699, "\u0628\u0631\u0646\u062f": 700, "\u06af\u0648\u0631": 701, "\u0631\u06cc\u0634": 702, "\u0645\u0631\u0627\u062f": 703, "\u063a\u0644\u0627\u0645": 704, "\u0646\u0647\u062f": 705, "\u06cc\u0627\u0628\u06cc": 706, "\u0627\u06cc\u0632\u062f": 707, "\u0639\u06cc\u0634": 708, "\u0646\u0627\u0632": 709, "\u0646\u0634\u0627\u06cc\u062f": 710, "\u062f\u0631\u06cc": 711, "\u06a9\u0646\u06cc\u0645": 712, "\u0637\u0631\u0628": 713, "\u0628\u0628\u0631\u062f": 714, "\u0631\u0627\u062d\u062a": 715, "\u0635\u062d\u0628\u062a": 716, "\u0627\u06cc\u0646\u062c\u0627": 717, "\u0632\u06cc": 718, "\u062e\u0627\u0642\u0627\u0646\u06cc\u0627": 719, "\u0637\u0631\u06cc\u0642": 720, "\u06a9\u0645\u0646\u062f": 721, "\u0633\u0641\u0631": 722, "\u0639\u0634\u0642\u062a": 723, "\u062c\u0627\u0646\u0645": 724, "\u0632\u0648\u0631": 725, "\u0628\u0631\u0641\u062a": 726, "\u06a9\u0644": 727, "\u062f\u0644\u062a": 728, "\u0646\u06cc\u0633\u062a\u06cc": 729, "\u0628\u0648\u062f\u0645": 730, "\u062c\u0647\u0644": 731, "\u062f\u0631\u06af\u0627\u0647": 732, "\u0622\u0646\u06af\u0647": 733, "\u062e\u0648\u0631\u06cc": 734, "\u062f\u0627\u0631\u0646\u062f": 735, "\u062c\u0648\u0627\u0646": 736, "\u0632\u0647\u06cc": 737, "\u062a\u0647\u06cc": 738, "\u0686\u0645\u0646": 739, "\u0634\u0628\u06cc": 740, "\u062c\u0627\u06cc\u06cc": 741, "\u062e\u0627\u0644": 742, "\u062c\u0633\u0645": 743, "\u0634\u06a9\u0633\u062a\u0647": 744, "\u062d\u0636\u0631\u062a": 745, "\u067e\u0646\u062f": 746, "\u0646\u06a9\u0631\u062f": 747, "\u06af\u0645\u0627\u0646": 748, "\u06a9\u0644\u0627\u0647": 749, "\u0633\u0627\u0642\u06cc": 750, "\u062d\u0642\u06cc\u0642\u062a": 751, "\u0641\u0631": 752, "\u062f\u0634\u0645\u0646\u0627\u0646": 753, "\u062c\u0627\u0646\u06cc": 754, "\u062a\u06cc\u0631\u0647": 755, "\u0648\u0635\u0641": 756, "\u0627\u0641\u062a\u0627\u062f": 757, "\u0627\u0642\u0628\u0627\u0644": 758, "\u06af\u0627\u0648": 759, "\u062d\u0627\u062c\u062a": 760, "\u062e\u0646\u062f\u0647": 761, "\u062a\u0648\u0627\u0646\u062f": 762, "\u0646\u062f\u0627\u0646\u0645": 763, "\u06af\u0648\u0634\u0647": 764, "\u062c\u0631\u0645": 765, "\u0646\u0647\u06cc": 766, "\u06af\u0630\u0634\u062a": 767, "\u062c\u0641\u062a": 768, "\u0647\u0645\u0686\u0646\u0627\u0646": 769, "\u0632\u06cc\u0627\u0646": 770, "\u062c\u0645\u0639": 771, "\u0645\u0633\u06a9\u06cc\u0646": 772, "\u062e\u0631\u0645": 773, "\u0632\u0631\u062f": 774, "\u0645\u062b\u0644": 775, "\u0633\u0631\u06cc": 776, "\u0628\u0631\u062e\u0627\u0633\u062a": 777, "\u0627\u06cc\u0646\u062a": 778, "\u0633\u0631\u062e": 779, "\u0641\u0631\u0633\u062a": 780, "\u0644\u0641\u0638": 781, "\u0641\u0631\u062f\u0627": 782, "\u0628\u0648\u0633\u062a\u0627\u0646": 783, "\u0645\u0635\u0637\u0641\u06cc": 784, "\u0633\u0627\u062e\u062a": 785, "\u0639\u0632\u06cc\u0632": 786, "\u062f\u06cc\u0631": 787, "\u062e\u0644\u0627\u0641": 788, "\u0628\u0647\u062a\u0631": 789, "\u0633\u0631\u0634": 790, "\u062a\u0628": 791, "\u062e\u0637\u0627": 792, "\u0646\u0646\u06af": 793, "\u0627\u0646\u0635\u0627\u0641": 794, "\u062c\u0647\u0627\u0646\u06cc": 795, "\u06cc\u0642\u06cc\u0646": 796, "\u0633\u0644\u06cc\u0645\u0627\u0646": 797, "\u0634\u0631\u0648\u0627\u0646": 798, "\u0642\u0647\u0631": 799, "\u0627\u0633\u06cc\u0631": 800, "\u0646\u0634\u0633\u062a": 801, "\u062f\u0631\u0633\u062a": 802, "\u0686\u0646\u062f\u06cc\u0646": 803, "\u0641\u0639\u0644": 804, "\u067e\u06cc\u0644": 805, "\u0633\u0631\u062f": 806, "\u0630\u0627\u062a": 807, "\u06a9\u0634\u062a": 808, "\u062e\u06cc\u0632": 809, "\u0634\u0627\u062f": 810, "\u0627\u0646\u06af\u06cc\u062e\u062a\u0647": 811, "\u0647\u0645\u06cc\u0646": 812, "\u0645\u06af\u0633": 813, "\u062f\u06cc\u0648\u0627\u0631": 814, "\u0635\u0628\u0627": 815, "\u0646\u06af\u0627\u0631": 816, "\u062d\u06cc\u0648\u0627\u0646": 817, "\u06af\u0631\u0641\u062a\u0647": 818, "\u0639\u0627\u0644\u0645\u06cc": 819, "\u0648\u0635\u0627\u0644": 820, "\u0627\u0645\u0631": 821, "\u0646\u0628\u06cc\u0646\u062f": 822, "\u0646\u0645\u0648\u062f": 823, "\u0632\u0631\u06cc\u0646": 824, "\u06af\u0631\u062f\u06cc": 825, "\u06a9\u0648\u0646": 826, "\u0633\u0628\u06a9": 827, "\u0628\u0644\u0646\u062f": 828, "\u062e\u0648\u0627\u0633\u062a": 829, "\u0647\u0648\u0634": 830, "\u0639\u0627\u0642\u0644": 831, "\u062f\u0645\u06cc": 832, "\u062f\u0639\u0627": 833, "\u0639\u0645\u0644": 834, "\u062c\u0631\u0639\u0647": 835, "\u0627\u062b\u0631": 836, "\u0632\u0627\u062f\u0647": 837, "\u067e\u06cc\u062f\u0627": 838, "\u067e\u0648\u0633\u062a": 839, "\u06af\u0631\u06cc\u0628\u0627\u0646": 840, "\u0635\u062d\u0631\u0627": 841, "\u0647\u062c\u0631": 842, "\u0627\u06cc\u0646\u06a9": 843, "\u06cc\u0627\u0631\u0627\u0646": 844, "\u0686\u06af\u0648\u0646\u0647": 845, "\u063a\u06cc\u0628": 846, "\u0622\u06cc\u06cc": 847, "\u0632\u0627\u062f": 848, "\u0646\u0628\u0631\u062f": 849, "\u0646\u06cc\u06a9\u0648": 850, "\u0633\u062a\u0645": 851, "\u0628\u06cc\u062e": 852, "\u0627\u0628\u062f": 853, "\u0631\u0641\u062a\u0646": 854, "\u0631\u0633\u0648\u0644": 855, "\u0646\u062e\u0648\u0627\u0647\u062f": 856, "\u062f\u0644\u0634": 857, "\u0645\u063a\u0632": 858, "\u0631\u0633\u0645": 859, "\u0634\u0634": 860, "\u0639\u0630\u0631": 861, "\u062e\u0627\u0635\u0647": 862, "\u06a9\u0644\u06a9": 863, "\u0647\u0634\u062a": 864, "\u0633\u06cc\u0631\u062a": 865, "\u0628\u06cc\u0627\u0631": 866, "\u062a\u0641": 867, "\u0646\u062f\u06cc\u062f\u0645": 868, "\u0628\u06af\u0630\u0627\u0631": 869, "\u0627\u062d\u0645\u062f": 870, "\u0634\u0645\u0627\u0631": 871, "\u062f\u06cc": 872, "\u062f\u06cc\u062f\u06cc": 873, "\u0686\u0627\u0631\u0647": 874, "\u062e\u0627\u0645": 875, "\u0628\u0631\u0646\u062a\u0627\u0628\u062f": 876, "\u062e\u0648\u0628\u0627\u0646": 877, "\u0628\u0627\u0644\u0627": 878, "\u0628\u0627\u0631\u0627\u0646": 879, "\u0632\u062d\u0645\u062a": 880, "\u0646\u0628\u06cc\u0646\u06cc": 881, "\u0645\u062d\u0645\u062f": 882, "\u0641\u0631\u0627\u0632": 883, "\u0627\u0646": 884, "\u0634\u0648\u0642": 885, "\u06cc\u0627\u0631\u06cc": 886, "\u0632\u0646\u0627\u0646": 887, "\u0622\u0633\u062a\u0627\u0646": 888, "\u0634\u0648\u0631": 889, "\u06a9\u0648\u0631": 890, "\u06af\u0646\u0647": 891, "\u0627\u062e\u062a\u06cc\u0627\u0631": 892, "\u0634\u06a9\u0633\u062a": 893, "\u062f\u0647\u0646": 894, "\u0622\u0641\u0627\u0642": 895, "\u0633\u062e\u0627": 896, "\u0628\u0628\u06cc\u0646": 897, "\u062e\u0627\u0635": 898, "\u062c\u062f\u0627": 899, "\u0639\u0646\u0628\u0631": 900, "\u0627\u0646\u0633": 901, "\u062a\u062e\u0645": 902, "\u0632\u06cc\u0628\u0627": 903, "\u0634\u06a9\u0644": 904, "\u0622\u0645\u06cc\u062e\u062a\u0647": 905, "\u0634\u06a9\u0645": 906, "\u0645\u06cc\u0648\u0647": 907, "\u062e\u0648\u0631\u062f\u0646": 908, "\u0637\u0627\u0639\u062a": 909, "\u0638\u0641\u0631": 910, "\u0642\u0631\u0622\u0646": 911, "\u0647\u0627\u0646": 912, "\u062f\u0631\u0627\u0632": 913, "\u0642\u0648\u06cc": 914, "\u06a9\u0645\u062a\u0631": 915, "\u0645\u0631\u06a9\u0628": 916, "\u062f\u0631\u062f\u06cc": 917, "\u062c\u0648\u06cc\u06cc": 918, "\u0645\u0646\u062a": 919, "\u06a9\u0634\u06cc\u062f": 920, "\u06af\u0631\u062f\u0627\u0646": 921, "\u0634\u0646\u06cc\u062f\u0645": 922, "\u062e\u0633\u062a\u0647": 923, "\u062a\u0627\u0628": 924, "\u0631\u0648\u0627": 925, "\u0628\u06cc\u0627": 926, "\u062c\u0646\u062a": 927, "\u062f\u0631\u0648": 928, "\u0627\u0641\u062a\u062f": 929, "\u0645\u0644\u0627\u0645\u062a": 930, "\u0628\u0627\u0644\u0627\u06cc": 931, "\u0633\u0627\u062e\u062a\u0646\u062f": 932, "\u062a\u0645\u0627\u0645": 933, "\u0627\u06cc\u0648\u0627\u0646": 934, "\u0627\u0646\u062f\u0627\u0632\u062f": 935, "\u0628\u0631\u0645": 936, "\u0634\u0627\u0647\u062f": 937, "\u062f\u06cc\u0648\u0627\u0646\u0647": 938, "\u0639\u062f\u0645": 939, "\u0645\u0639\u0634\u0648\u0642": 940, "\u0645\u062d\u0646\u062a": 941, "\u062f\u0627\u0634\u062a\u0647": 942, "\u0642\u0631\u0627\u0631": 943, "\u0646\u062e\u0648\u0627\u0647\u06cc": 944, "\u062c\u0645": 945, "\u06a9\u0644\u0647": 946, "\u0628\u06cc\u0645\u0627\u0631": 947, "\u062c\u0647\u062f": 948, "\u067e\u0648\u0634": 949, "\u0647\u062c\u0631\u0627\u0646": 950, "\u062d\u0634\u0631": 951, "\u0646\u0631\u06af\u0633": 952, "\u0646\u0633\u06cc\u0645": 953, "\u0646\u0627\u06cc\u062f": 954, "\u0686\u06a9\u0646\u0645": 955, "\u06af\u0631\u062a": 956, "\u06af\u0631\u06af": 957, "\u06af\u0630\u0631": 958, "\u06a9\u062f\u0627\u0645": 959, "\u062d\u0633\u0631\u062a": 960, "\u062f\u06cc\u0648\u0627\u0646": 961, "\u0628\u06cc\u062a": 962, "\u0634\u0645\u0633": 963, "\u0646\u0639\u0644": 964, "\u06a9\u0627\u06cc": 965, "\u0645\u0634\u062a\u0631\u06cc": 966, "\u0645\u0642\u0627\u0645": 967, "\u0645\u0633\u062a\u06cc": 968, "\u0633\u0631\u0645": 969, "\u06a9\u0627\u0631\u06cc": 970, "\u0628\u0631\u06cc\u0646": 971, "\u0631\u0647\u06cc": 972, "\u0635\u0641\u0627\u0647\u0627\u0646": 973, "\u0639\u0646\u0627\u0646": 974, "\u062c\u0648\u0627\u0628": 975, "\u062a\u0644\u062e": 976, "\u062e\u06cc\u0645\u0647": 977, "\u06a9\u0627\u0641\u0631": 978, "\u0628\u0647\u0645": 979, "\u0641\u0631\u0632\u0646\u062f": 980, "\u0639\u062f\u0648": 981, "\u0646\u0638\u0645": 982, "\u062e\u0644\u0648\u062a": 983, "\u0627\u0641\u0633\u0631": 984, "\u06af\u0647\u06cc": 985, "\u0645\u0646\u06cc": 986, "\u062e\u0627\u06a9\u06cc": 987, "\u0628\u06cc\u062f\u0627\u0631": 988, "\u06a9\u0646\u0627\u0646": 989, "\u0628\u0627\u0632\u06cc": 990, "\u0627\u0641\u062a\u0627\u062f\u0647": 991, "\u062f\u0644\u0628\u0631": 992, "\u06af\u0631\u06cc\u0632\u0645": 993, "\u0633\u0639\u062f": 994, "\u0646\u0637\u0642": 995, "\u06af\u0631\u06cc\u0647": 996, "\u063a\u0645\u062a": 997, "\u0627\u0645\u0627\u0646": 998, "\u062e\u0644\u062f": 999, "\u0633\u0648\u062f\u0627\u06cc": 1000, "\u0628\u062f\u0647": 1001, "\u0633\u0633\u062a": 1002, "\u0686\u0634\u0645\u0645": 1003, "\u0646\u062f\u0627\u0646\u062f": 1004, "\u0622\u0631\u0632\u0648": 1005, "\u062d\u0644\u0627\u0644": 1006, "\u0633\u0627\u0639\u062a": 1007, "\u0646\u062b\u0627\u0631": 1008, "\u062e\u0631\u0627\u0628\u0627\u062a": 1009, "\u0639\u0642\u062f": 1010, "\u0628\u06cc\u0686\u0627\u0631\u0647": 1011, "\u0646\u0642\u062f": 1012, "\u0645\u06cc\u0631": 1013, "\u0632\u062f\u0646": 1014, "\u0635\u0641\u0627": 1015, "\u0645\u0648\u0631": 1016, "\u0646\u062f\u0647\u062f": 1017, "\u0646\u06a9\u0648\u062a\u0631": 1018, "\u0645\u06a9\u0627\u0646": 1019, "\u0627\u0632\u0644": 1020, "\u062c\u0648\u06cc\u0645": 1021, "\u06a9\u0628\u0631": 1022, "\u0646\u0627\u062f\u0627\u0646": 1023, "\u0622\u0645\u062f\u06cc": 1024, "\u0645\u062d\u0631\u0645": 1025, "\u0686\u0647\u0627\u0631": 1026, "\u0646\u062f\u0627\u0646\u06cc": 1027, "\u062d\u0644\u0642": 1028, "\u062e\u0631\u0627\u0628": 1029, "\u0631\u0627\u06cc\u062a": 1030, "\u0634\u0647\u0648\u062a": 1031, "\u0628\u0647\u0627": 1032, "\u0628\u0631\u0648\u062f": 1033, "\u0631\u0648\u06cc\u062a": 1034, "\u06a9\u0634\u06cc": 1035, "\u062c\u0633\u062a": 1036, "\u062f\u0631\u0634": 1037, "\u0628\u0646\u062f\u062f": 1038, "\u0622\u0628\u06cc": 1039, "\u06af\u0646\u0627\u0647": 1040, "\u062d\u0631\u0627\u0645": 1041, "\u0628\u0631\u0622\u0648\u0631\u0645": 1042, "\u062e\u0637\u0631": 1043, "\u062e\u06cc\u0632\u062f": 1044, "\u06a9\u0647\u0646": 1045, "\u062f\u0631\u06cc\u0627\u06cc": 1046, "\u0628\u0631\u0622\u0648\u0631\u062f": 1047, "\u0632\u0646\u062f\u06af\u0627\u0646\u06cc": 1048, "\u0646\u0632\u062f\u06cc\u06a9": 1049, "\u0622\u06cc\u062a": 1050, "\u062e\u0627\u0644\u06cc": 1051, "\u0627\u0644\u062f\u06cc\u0646": 1052, "\u0628\u062f\u0631": 1053, "\u0637\u0631\u0641": 1054, "\u0634\u0631": 1055, "\u0630\u0631\u0647": 1056, "\u0622\u0647\u0646": 1057, "\u0631\u0647\u0627": 1058, "\u0639\u0631\u0628": 1059, "\u067e\u0646\u062c\u0647": 1060, "\u062f\u0631\u0645\u0627\u0646": 1061, "\u067e\u0627\u0633\u0628\u0627\u0646": 1062, "\u062f\u06cc\u062f\u0646": 1063, "\u0633\u0644\u0627\u0645\u062a": 1064, "\u0647\u0644\u0627\u06a9": 1065, "\u0628\u06af\u0648": 1066, "\u0647\u0632\u0627\u0631\u0627\u0646": 1067, "\u0628\u06af\u0634\u0627\u06cc\u06cc\u062f": 1068, "\u062c\u0644\u0627\u0644": 1069, "\u0633\u0645\u0627\u0639": 1070, "\u0686\u0648\u06af\u0627\u0646": 1071, "\u062f\u0641\u062a\u0631": 1072, "\u0639\u0631\u0648\u0633": 1073, "\u062f\u06cc\u06af\u0631\u0627\u0646": 1074, "\u0645\u0631\u06cc\u0645": 1075, "\u0632\u0646\u062f\u0627\u0646": 1076, "\u0631\u0633\u062a\u0645": 1077, "\u0639\u0627\u0641\u06cc\u062a": 1078, "\u0639\u0637\u0627": 1079, "\u062f\u0627\u0646\u0627": 1080, "\u062e\u0648\u0631\u0645": 1081, "\u0631\u06cc": 1082, "\u0642\u0637\u0631\u0647": 1083, "\u0642\u0645\u0631": 1084, "\u0645\u0633\u06cc\u062d": 1085, "\u0631\u0627\u0646": 1086, "\u062e\u0631\u0645\u0646": 1087, "\u06a9\u0631\u062f\u0646\u062f": 1088, "\u0633\u0648": 1089, "\u0622\u0631\u0627\u0645": 1090, "\u0628\u06af\u0648\u06cc": 1091, "\u062e\u0627\u0642\u0627\u0646": 1092, "\u0631\u06af": 1093, "\u0642\u0635\u062f": 1094, "\u0645\u062c\u0648\u06cc": 1095, "\u0646\u0642\u0627\u0628": 1096, "\u062d\u06a9\u0627\u06cc\u062a": 1097, "\u0633\u062e\u0627\u0634": 1098, "\u0633\u062a\u0627\u0631\u0647": 1099, "\u0632\u0647\u062f": 1100, "\u0627\u0633\u062a\u062e\u0648\u0627\u0646": 1101, "\u0622\u0641\u062a": 1102, "\u0633\u0628\u0628": 1103, "\u062e\u0648\u0627\u0646\u062f\u0647": 1104, "\u06a9\u0627\u0633\u0647": 1105, "\u0637\u0627\u0644\u0639": 1106, "\u067e\u0627\u0631\u0647": 1107, "\u0632\u0627\u0644": 1108, "\u062a\u0646\u0647\u0627": 1109, "\u0686\u06cc\u0632": 1110, "\u0634\u062f\u0646\u062f": 1111, "\u0622\u0632\u0627\u062f": 1112, "\u062e\u0648\u0628\u06cc": 1113, "\u062e\u0648\u0631\u062f\u0647": 1114, "\u062f\u0648\u0631\u0627\u0646": 1115, "\u0627\u0645\u06cc\u0631": 1116, "\u0646\u062f\u06cc\u062f": 1117, "\u062f\u0627\u06cc\u0645": 1118, "\u0622\u0632\u0627\u0631": 1119, "\u0628\u0634\u0646\u0648": 1120, "\u06a9\u06cc\u0633\u0647": 1121, "\u0632\u0646\u0645": 1122, "\u062d\u06cc\u0631\u0627\u0646": 1123, "\u0646\u0635\u06cc\u062d\u062a": 1124, "\u0639\u0648\u062f": 1125, "\u062c\u0627\u0646\u0634": 1126, "\u0641\u0631\u0634": 1127, "\u062e\u0648\u0634\u062a\u0631": 1128, "\u0637\u0648\u0642": 1129, "\u062e\u06cc\u0644": 1130, "\u0622\u062a\u0634\u06cc": 1131, "\u0634\u0648\u062e": 1132, "\u0646\u0628\u0627\u06cc\u062f": 1133, "\u0633\u0648\u0627\u0631": 1134, "\u0627\u0644\u0641": 1135, "\u0628\u062e\u0634": 1136, "\u0639\u0634\u0627\u0642": 1137, "\u0645\u06cc\u0644": 1138, "\u0628\u0627\u06a9": 1139, "\u0646\u06cc\u0632\u0647": 1140, "\u0633\u0648\u062f\u0627": 1141, "\u0622\u0646\u0633\u062a": 1142, "\u06cc\u0632\u062f\u0627\u0646": 1143, "\u062c\u0648\u0627\u0646\u06cc": 1144, "\u067e\u0631\u0648\u0627\u0646\u0647": 1145, "\u0628\u0628\u0627\u06cc\u062f": 1146, "\u0642\u0627\u0645\u062a": 1147, "\u0646\u06a9\u0646\u0645": 1148, "\u062c\u0627\u0646\u062a": 1149, "\u0628\u06a9\u0646": 1150, "\u0630\u06a9\u0631": 1151, "\u067e\u0627\u062f\u0634\u0627\u0647": 1152, "\u0628\u0631\u0627\u062f\u0631": 1153, "\u0622\u06cc": 1154, "\u0622\u0641\u0631\u06cc\u0646": 1155, "\u06af\u0631\u0628\u0647": 1156, "\u0631\u0634\u062a\u0647": 1157, "\u0646\u0641\u0633\u06cc": 1158, "\u0646\u06af\u0631\u062f\u062f": 1159, "\u0646\u06af\u0627\u0647": 1160, "\u0641\u0634\u0627\u0646\u062f": 1161, "\u0631\u0636\u0648\u0627\u0646": 1162, "\u062a\u06a9\u06cc\u0647": 1163, "\u062d\u0631\u0645": 1164, "\u0648\u0647\u0645": 1165, "\u0622\u0631": 1166, "\u0645\u0631\u0647\u0645": 1167, "\u062b\u0646\u0627": 1168, "\u0646\u06a9\u0646\u06cc": 1169, "\u0641\u0646\u0627": 1170, "\u0631\u0648\u06cc\u0634": 1171, "\u0645\u062f\u0647": 1172, "\u0632\u06cc\u0628\u062f": 1173, "\u062e\u0627\u062a\u0645": 1174, "\u0633\u0639\u06cc": 1175, "\u0639\u062c\u0645": 1176, "\u0641\u0642\u0631": 1177, "\u0632\u06cc\u0631\u0627": 1178, "\u0632\u0646\u0627\u0631": 1179, "\u0645\u0632\u0646": 1180, "\u0631\u062e\u0633\u0627\u0631": 1181, "\u0645\u0646\u0647": 1182, "\u067e\u06cc\u0631\u06cc": 1183, "\u0622\u06cc\u06cc\u0646\u0647": 1184, "\u06af\u0644\u0633\u062a\u0627\u0646": 1185, "\u0634\u062e\u0635": 1186, "\u0628\u06af\u0641\u062a": 1187, "\u062e\u0645\u0627\u0631": 1188, "\u0633\u0646\u0627\u0646": 1189, "\u0645\u0634\u0648": 1190, "\u0633\u0628\u0632": 1191, "\u0633\u0627\u0646": 1192, "\u0641\u062e\u0631": 1193, "\u067e\u0646\u0627\u0647": 1194, "\u0648\u0642\u062a\u06cc": 1195, "\u0631\u0627\u0633\u062a\u06cc": 1196, "\u0627\u062e\u062a\u0631": 1197, "\u0631\u0636\u0627": 1198, "\u067e\u0631\u06cc\u0634\u0627\u0646": 1199, "\u062d\u0644\u0645": 1200, "\u0633\u0646\u062a": 1201, "\u0628\u0632\u0645": 1202, "\u062f\u0647\u0645": 1203, "\u0645\u0639\u0627\u0646\u06cc": 1204, "\u062e\u0648\u0627\u0647": 1205, "\u0631\u0648\u06cc\u06cc": 1206, "\u0633\u0639\u0627\u062f\u062a": 1207, "\u06a9\u0646\u06cc\u062f": 1208, "\u062f\u0631\u062a": 1209, "\u0645\u0634\u062a\u06cc": 1210, "\u0627\u06cc\u0645\u0646": 1211, "\u06a9\u0631\u0627": 1212, "\u0628\u0644": 1213, "\u067e\u0627\u06cc\u0647": 1214, "\u0639\u0632\u0645": 1215, "\u0641\u062a\u062d": 1216, "\u0639\u06cc\u0627\u0631": 1217, "\u062a\u062f\u0628\u06cc\u0631": 1218, "\u062e\u0641\u062a\u0647": 1219, "\u0634\u06a9\u0646": 1220, "\u0631\u06cc\u062e\u062a": 1221, "\u062f\u0648\u0646": 1222, "\u0632\u0646\u06cc\u0645": 1223, "\u06af\u0634\u0627\u062f": 1224, "\u0635\u0648\u0631": 1225, "\u062d\u0627\u0644\u06cc": 1226, "\u0645\u062b\u0627\u0644": 1227, "\u0637\u0648\u0641\u0627\u0646": 1228, "\u0645\u0635\u0631": 1229, "\u0634\u06a9\u0627\u0631": 1230, "\u062d\u062c\u0627\u0628": 1231, "\u06a9\u0648\u0633": 1232, "\u06a9\u0634\u0645": 1233, "\u0648\u0622\u0646": 1234, "\u0644\u0642\u0645\u0647": 1235, "\u0628\u0627\u0644": 1236, "\u0634\u062d\u0646\u0647": 1237, "\u062f\u062c\u0644\u0647": 1238, "\u0646\u06a9\u062a\u0647": 1239, "\u0646\u0632": 1240, "\u0622\u0631\u0646\u062f": 1241, "\u06af\u0641\u062a\u0627": 1242, "\u06cc\u0627\u0641\u062a\u0647": 1243, "\u0634\u0646\u0648\u0646\u062f": 1244, "\u0644\u0628\u062a": 1245, "\u0632\u0646\u0647\u0627\u0631": 1246, "\u0628\u0631\u0642": 1247, "\u0646\u0631\u0648\u062f": 1248, "\u0642\u0635\u0647": 1249, "\u0646\u0642\u0637\u0647": 1250, "\u0628\u062a\u0631": 1251, "\u0627\u062d\u0633\u0627\u0646": 1252, "\u06a9\u0634\u0648\u0631": 1253, "\u0633\u06cc\u0645\u06cc\u0646": 1254, "\u0642\u0644\u0628": 1255, "\u0622\u0633\u0648\u062f\u0647": 1256, "\u0645\u0631\u063a\u0627\u0646": 1257, "\u062e\u0632\u0627\u0646": 1258, "\u0627\u0642\u0644\u06cc\u0645": 1259, "\u062e\u0648\u0634\u0647": 1260, "\u0646\u0647\u0645": 1261, "\u0646\u0645\u06a9": 1262, "\u0645\u0647\u0645\u0627\u0646": 1263, "\u0646\u0634\u062f": 1264, "\u0628\u0632\u0631\u06af": 1265, "\u062d\u06cc\u062f\u0631": 1266, "\u0639\u0627\u0642\u0628\u062a": 1267, "\u0646\u0634\u06cc\u0646": 1268, "\u0628\u06cc\u06af\u0627\u0646\u0647": 1269, "\u0628\u0635\u0631": 1270, "\u0642\u0648\u0644": 1271, "\u0628\u0628\u0631": 1272, "\u06a9\u0648\u062a\u0647": 1273, "\u0639\u0627\u0645": 1274, "\u0648\u0641\u0627\u06cc": 1275, "\u0627\u0646\u062f\u0647": 1276, "\u0628\u0633\u0627\u0646": 1277, "\u0628\u06af\u0630\u0631\u062f": 1278, "\u067e\u0627\u062f\u0634\u0627\u0647\u06cc": 1279, "\u0645\u0628\u0631": 1280, "\u0628\u0631\u062a\u0631": 1281, "\u0628\u0642\u0627\u06cc": 1282, "\u067e\u0627\u06cc\u0627\u0646": 1283, "\u0628\u0646\u062f\u06af\u06cc": 1284, "\u062f\u06cc\u06af\u0631\u06cc": 1285, "\u062f\u0647\u0646\u062f": 1286, "\u062d\u06a9\u06cc\u0645": 1287, "\u0633\u06cc\u0644": 1288, "\u0633\u0645": 1289, "\u0628\u0633\u0627": 1290, "\u067e\u06cc\u06a9\u0631": 1291, "\u0627\u06af\u0631\u0686\u0647": 1292, "\u0646\u0628\u0648\u062f\u06cc": 1293, "\u0637\u0648\u0637\u06cc": 1294, "\u0645\u0634\u0631\u0642": 1295, "\u0632\u0646\u0646\u062f": 1296, "\u0631\u06a9\u0627\u0628": 1297, "\u0627\u0631\u0686\u0647": 1298, "\u0627\u062e\u062a\u0631\u0627\u0646": 1299, "\u0628\u06cc\u0627\u0646": 1300, "\u0646\u06cc\u0634": 1301, "\u062f\u0627\u062f\u06cc": 1302, "\u0628\u0631\u06cc\u062f\u0647": 1303, "\u0632\u0645\u0627\u0646\u06cc": 1304, "\u06a9\u0698": 1305, "\u063a\u06cc\u0631\u062a": 1306, "\u0645\u062e\u0648\u0631": 1307, "\u0631\u062e\u0634": 1308, "\u0627\u0645\u06cc\u0646": 1309, "\u062a\u0648\u0627\u0646\u06cc": 1310, "\u0638\u0627\u0647\u0631": 1311, "\u062c\u0648\u0647\u0631": 1312, "\u0622\u0633\u062a\u06cc\u0646": 1313, "\u0641\u0634\u0627\u0646": 1314, "\u06a9\u0628\u0648\u062a\u0631": 1315, "\u0628\u0648\u0645": 1316, "\u0635\u0646\u0645": 1317, "\u0628\u0627\u0628": 1318, "\u062f\u0627\u0634\u062a\u0645": 1319, "\u0631\u0633\u062a\u0647": 1320, "\u0637\u0627\u0642\u062a": 1321, "\u0631\u0648\u0627\u0633\u062a": 1322, "\u0627\u0628\u0644\u06cc\u0633": 1323, "\u062f\u0639\u0627\u06cc": 1324, "\u0647\u0634\u06cc\u0627\u0631": 1325, "\u062d\u0630\u0631": 1326, "\u0646\u062e\u0633\u062a": 1327, "\u067e\u0631\u0633\u062a": 1328, "\u0622\u062a\u0634\u06cc\u0646": 1329, "\u0646\u06cc\u0627\u0641\u062a": 1330, "\u06a9\u0633\u0627\u0646": 1331, "\u0646\u062e\u0648\u0627\u0647\u0645": 1332, "\u0639\u0644\u062a": 1333, "\u0645\u0631\u0648": 1334, "\u0627\u0633\u0644\u0627\u0645": 1335, "\u0645\u0645\u0644\u06a9\u062a": 1336, "\u062e\u0646\u062f\u0627\u0646": 1337, "\u06a9\u0631\u062f\u0627\u0631": 1338, "\u0646\u0645": 1339, "\u067e\u0627": 1340, "\u0637\u0627\u0642": 1341, "\u062b\u0646\u0627\u06cc": 1342, "\u0627\u0633\u062f": 1343, "\u062a\u0631\u0633\u0645": 1344, "\u062c\u0628\u0631\u06cc\u06cc\u0644": 1345, "\u067e\u06cc\u0648\u0633\u062a\u0647": 1346, "\u062f\u0633\u062a\u0627\u0646": 1347, "\u0646\u0648\u062d": 1348, "\u0632\u0646\u062c\u06cc\u0631": 1349, "\u0642\u0641\u0627": 1350, "\u0634\u0631\u0628\u062a": 1351, "\u062f\u0632\u062f": 1352, "\u062f\u0633\u062a\u0634": 1353, "\u067e\u06cc\u06a9\u0627\u0646": 1354, "\u0634\u0648\u06cc\u0645": 1355, "\u0645\u0639\u0631\u0641\u062a": 1356, "\u062f\u0644\u0647\u0627": 1357, "\u0644\u062d\u0638\u0647": 1358, "\u0642\u0646\u0627\u0639\u062a": 1359, "\u0646\u062a\u0648\u0627\u0646\u062f": 1360, "\u0641\u0627\u0631\u063a": 1361, "\u062a\u0627\u0631": 1362, "\u0644\u0645": 1363, "\u06af\u0648\u0646\u0647": 1364, "\u0628\u0627\u0632\u0648\u06cc": 1365, "\u06a9\u06cc\u0648\u0627\u0646": 1366, "\u0622\u0644": 1367, "\u0633\u0627\u062e\u062a\u0647": 1368, "\u062c\u0641\u0627\u06cc": 1369, "\u0646\u0627\u06cc": 1370, "\u067e\u06cc\u0634\u0647": 1371, "\u0642\u0641\u0633": 1372, "\u0646\u0628\u06cc": 1373, "\u062a\u0627\u0632\u06cc": 1374, "\u0622\u0631\u0645": 1375, "\u06af\u0632\u06cc\u062f\u0647": 1376, "\u0645\u0633\u0644\u0645": 1377, "\u067e\u0648\u0634\u06cc\u062f\u0647": 1378, "\u0634\u0645\u0631": 1379, "\u0628\u0646\u0647": 1380, "\u0646\u0627\u06af\u0647": 1381, "\u06a9\u0627\u0631\u0648\u0627\u0646": 1382, "\u0622\u0646\u06a9\u0633": 1383, "\u063a\u0635\u0647": 1384, "\u0634\u0646\u06cc\u062f": 1385, "\u0646\u062f\u0627\u0634\u062a": 1386, "\u0628\u0627\u0637\u0644": 1387, "\u0622\u0644\u0648\u062f\u0647": 1388, "\u062f\u0627\u0646\u0646\u062f": 1389, "\u062e\u0631\u0642\u0647": 1390, "\u06a9\u0628\u0648\u062f": 1391, "\u0646\u06cc\u0644": 1392, "\u0641\u0631\u0633\u062a\u0627\u062f\u06cc": 1393, "\u063a\u0627\u0641\u0644": 1394, "\u0635\u0644\u0627\u062d": 1395, "\u0633\u062c\u062f\u0647": 1396, "\u0639\u06cc\u0627\u0646": 1397, "\u062e\u0627\u0645\u0647": 1398, "\u067e\u0627\u06cc\u062a": 1399, "\u0636\u0645\u06cc\u0631": 1400, "\u0645\u0637\u0631\u0628": 1401, "\u0645\u0644\u06a9\u062a": 1402, "\u0635\u0627\u062f\u0642": 1403, "\u0642\u0648\u0645": 1404, "\u0642\u06cc\u0645\u062a": 1405, "\u062a\u062d\u0641\u0647": 1406, "\u06af\u0634\u0627\u062f\u0647": 1407, "\u0627\u0645\u0627\u0645": 1408, "\u062e\u0648\u0627\u0646\u06cc": 1409, "\u06af\u0627\u0647\u06cc": 1410, "\u0633\u0644\u0627\u0645": 1411, "\u0632\u0627\u063a": 1412, "\u0639\u0631\u0636": 1413, "\u0628\u0631\u0622\u0631\u062f": 1414, "\u0642\u062f\u062d": 1415, "\u0628\u0628\u06cc\u0646\u06cc": 1416, "\u0642\u0627\u0641": 1417, "\u0628\u0631\u062f\u06cc": 1418, "\u0639\u0627\u062c\u0632": 1419, "\u0634\u062f\u0646": 1420, "\u0634\u0627\u0647\u0627\u0646": 1421, "\u0647\u0644\u0627\u0644": 1422, "\u062f\u0631\u0622\u0648\u0631\u0645": 1423, "\u062f\u0633\u062a\u06cc": 1424, "\u0633\u0631\u0645\u0647": 1425, "\u0646\u06cc\u0627\u0631\u062f": 1426, "\u06cc\u0627\u0628\u062f": 1427, "\u062d\u062c": 1428, "\u0642\u0628\u0627": 1429, "\u0646\u06af\u0648\u06cc\u0645": 1430, "\u06af\u0646\u0628\u062f": 1431, "\u0639\u0627\u0631": 1432, "\u062e\u0631\u0648\u0634": 1433, "\u0646\u06af\u06cc\u0631\u062f": 1434, "\u0627\u0645\u0644": 1435, "\u0646\u0634\u0633\u062a\u0647": 1436, "\u067e\u0633\u062a": 1437, "\u0645\u0628\u0627\u062f": 1438, "\u0631\u06cc\u0632": 1439, "\u0631\u0634\u06a9": 1440, "\u0641\u0631\u0648\u062f": 1441, "\u0622\u0646\u0645": 1442, "\u0639\u0634\u0648\u0647": 1443, "\u0628\u062e\u0634\u0634": 1444, "\u0637\u0631\u0627\u0632": 1445, "\u0645\u062d\u0628\u062a": 1446, "\u0622\u0633\u0627\u0646": 1447, "\u0628\u06af\u0648\u06cc\u062f": 1448, "\u063a\u0627\u06cc\u062a": 1449, "\u0645\u0648\u062c": 1450, "\u062f\u0644\u06cc\u0644": 1451, "\u0686\u0646\u0648": 1452, "\u062e\u0627\u0646": 1453, "\u0646\u0634\u0627\u0637": 1454, "\u0622\u06cc\u06cc\u0646": 1455, "\u0645\u06af\u0648\u06cc": 1456, "\u0646\u062a\u0648\u0627\u0646\u0645": 1457, "\u0628\u0631\u0634": 1458, "\u0641\u06a9\u0631\u062a": 1459, "\u0627\u0631\u06a9\u0627\u0646": 1460, "\u0647\u0646\u06af\u0627\u0645": 1461, "\u0648\u0639\u062f\u0647": 1462, "\u0644\u0648\u062d": 1463, "\u0686\u0646\u0628\u0631": 1464, "\u067e\u0631\u0648\u06cc\u0646": 1465, "\u062f\u0627\u062f\u0646": 1466, "\u062c\u0648\u06cc\u062f": 1467, "\u0628\u0648\u062f\u0646\u062f": 1468, "\u0633\u0645\u0646": 1469, "\u0628\u0627\u06cc\u0633\u062a\u06cc": 1470, "\u0628\u0633\u0627\u0637": 1471, "\u0631\u0627\u0646\u062f": 1472, "\u0641\u063a\u0627\u0646": 1473, "\u0627\u0646\u062a\u0638\u0627\u0631": 1474, "\u06a9\u0641\u0634": 1475, "\u0628\u06af\u0630\u0634\u062a": 1476, "\u0631\u062f": 1477, "\u062f\u0648\u0645": 1478, "\u0645\u0627\u0646\u0646\u062f": 1479, "\u0686\u0648\u0628": 1480, "\u06a9\u0631\u062f\u06af\u0627\u0631": 1481, "\u0628\u06cc\u062f\u0627\u062f": 1482, "\u062f\u06a9\u0627\u0646": 1483, "\u06af\u0632\u06cc\u062f": 1484, "\u0627\u062f\u0628": 1485, "\u0622\u0647\u0648": 1486, "\u063a\u0631\u06cc\u0628": 1487, "\u0686\u0646\u0627\u0646\u06a9": 1488, "\u0633\u0627\u0632\u06cc": 1489, "\u0628\u0647\u0631\u0627\u0645": 1490, "\u0646\u0648\u0628\u062a": 1491, "\u0645\u062d\u0627\u0644": 1492, "\u0632\u06cc\u0646\u0647\u0627\u0631": 1493, "\u0628\u0627\u0631\u06af\u0627\u0647": 1494, "\u0634\u06cc\u0637\u0627\u0646": 1495, "\u0639\u0646\u0642\u0627": 1496, "\u067e\u062e\u062a\u0647": 1497, "\u062e\u062f\u0627\u06cc\u06cc": 1498, "\u0646\u06af\u06cc\u0646": 1499, "\u0645\u0642\u06cc\u0645": 1500, "\u0641\u0644\u0627\u0646": 1501, "\u06af\u0632\u06cc\u0646": 1502, "\u0628\u06cc\u0627\u0628\u0627\u0646": 1503, "\u0646\u06cc\u0633\u062a\u0645": 1504, "\u067e\u0631\u0648\u0631\u062f": 1505, "\u0646\u0627\u0648\u06a9": 1506, "\u0645\u062d\u0634\u0631": 1507, "\u0639\u0627\u062f\u0644": 1508, "\u0645\u0644\u0648\u06a9": 1509, "\u0634\u0627\u0647\u06cc": 1510, "\u062e\u0644\u06cc\u0641\u0647": 1511, "\u0639\u062c\u0632": 1512, "\u0632\u062f\u06cc": 1513, "\u0627\u0646\u062c\u0645": 1514, "\u0631\u0648\u0636\u0647": 1515, "\u062d\u0633\u062f": 1516, "\u0634\u062f\u0633\u062a": 1517, "\u062e\u0646\u062c\u0631": 1518, "\u0631\u0636\u0627\u06cc": 1519, "\u063a\u0631\u0648\u0631": 1520, "\u0632\u0631\u0647": 1521, "\u0627\u0646\u062f\u0648\u0647": 1522, "\u0628\u0647\u0627\u06cc": 1523, "\u067e\u06cc\u0627\u062f\u0647": 1524, "\u0639\u0632\u062a": 1525, "\u0628\u06cc\u062f": 1526, "\u0645\u06af\u0648": 1527, "\u0627\u0646\u0628\u06cc\u0627": 1528, "\u0645\u0698\u0647": 1529, "\u0637\u0628\u06cc\u0628": 1530, "\u0628\u0646\u062f\u06cc": 1531, "\u0645\u062f\u062d\u062a": 1532, "\u0627\u0633\u0631\u0627\u0631": 1533, "\u062c\u0627\u0648\u062f\u0627\u0646": 1534, "\u06a9\u0631\u0627\u0646": 1535, "\u0647\u0645\u0627\u06cc": 1536, "\u0628\u062f\u0627\u0646\u06cc": 1537, "\u0646\u0645\u0627\u06cc": 1538, "\u0628\u0631\u0647\u0627\u0646": 1539, "\u0641\u062a\u0627\u062f": 1540, "\u0628\u062e\u0644": 1541, "\u06a9\u0634\u062a\u0646": 1542, "\u0622\u0631\u0632\u0648\u06cc": 1543, "\u062f\u0646\u06cc\u06cc": 1544, "\u062f\u06cc\u0627\u0631": 1545, "\u0641\u0631\u062f\u0648\u0633": 1546, "\u0628\u0632\u0631\u06af\u06cc": 1547, "\u06a9\u0645\u06cc\u0646": 1548, "\u0642\u0635\u0631": 1549, "\u062e\u0631\u062f\u0645\u0646\u062f": 1550, "\u0639\u0627\u0631\u0636": 1551, "\u06a9\u06cc\u0646\u0647": 1552, "\u0628\u062f\u0644": 1553, "\u062c\u0644\u0648\u0647": 1554, "\u062f\u0631\u0622\u0645\u062f": 1555, "\u0638\u0644\u0645\u062a": 1556, "\u062f\u0644\u0627\u0646": 1557, "\u0622\u0646\u0631\u0627": 1558, "\u06af\u0631\u06cc\u0632": 1559, "\u0627\u0630\u0627": 1560, "\u0647\u0646\u062f": 1561, "\u0645\u0631\u062f\u0645\u06cc": 1562, "\u0645\u0634\u06a9\u06cc\u0646": 1563, "\u0632\u0646\u0628\u0648\u0631": 1564, "\u0634\u0646\u0627\u0633": 1565, "\u0642\u06cc\u0627\u0633": 1566, "\u06cc\u0627\u0642\u0648\u062a": 1567, "\u062f\u0633\u062a\u062a": 1568, "\u067e\u06cc\u0634\u062a": 1569, "\u063a\u0631\u0642\u0647": 1570, "\u0633\u0627\u0644\u0647": 1571, "\u062d\u062c\u062a": 1572, "\u0633\u0628\u0632\u0647": 1573, "\u0645\u0627\u0644\u06a9": 1574, "\u062d\u0633\u0627\u0628": 1575, "\u0641\u0632\u0648\u0646": 1576, "\u0646\u06cc\u0627\u0628\u062f": 1577, "\u0634\u0627\u0646": 1578, "\u062d\u0631\u06cc\u0641": 1579, "\u0645\u062d\u0644": 1580, "\u06af\u0627\u0645": 1581, "\u0628\u0644\u06cc": 1582, "\u0634\u0631\u0642": 1583, "\u0642\u062f\u0631\u062a": 1584, "\u0628\u0627\u0645\u062f\u0627\u062f": 1585, "\u06af\u0644\u0628\u0646": 1586, "\u06af\u0631\u0647": 1587, "\u063a\u0628\u0627\u0631": 1588, "\u0627\u0641\u0634\u0627\u0646": 1589, "\u0645\u0646\u0633\u062a": 1590, "\u062e\u0644\u06cc\u0644": 1591, "\u0646\u06af\u0648\u06cc\u06cc": 1592, "\u063a\u06cc\u0631": 1593, "\u062f\u0627\u0631\u0648\u06cc": 1594, "\u0628\u06af\u0634\u0627\u062f": 1595, "\u0622\u0633\u0627": 1596, "\u0644\u0648\u0644\u0648": 1597, "\u06a9\u0634\u06cc\u062f\u0647": 1598, "\u0622\u0645\u062f\u0645": 1599, "\u0633\u0648\u0632\u0646": 1600, "\u0645\u0644\u062a": 1601, "\u0648\u0627\u0646\u06a9\u0647": 1602, "\u0634\u0633\u062a": 1603, "\u0645\u062e\u0648\u0627\u0647": 1604, "\u062f\u0633\u062a\u0627\u0631": 1605, "\u0645\u062c\u0627\u0644": 1606, "\u06af\u0644\u06cc": 1607, "\u0628\u0646\u06af\u0631": 1608, "\u062f\u0631\u06af\u0647": 1609, "\u0628\u0632\u0631\u06af\u0627\u0646": 1610, "\u0637\u0627\u0648\u0648\u0633": 1611, "\u0633\u06af\u0627\u0646": 1612, "\u06a9\u0644\u06cc\u062f": 1613, "\u06cc\u0639\u0646\u06cc": 1614, "\u0628\u0631\u0647\u0646\u0647": 1615, "\u0686\u0646\u0627\u0646\u06a9\u0647": 1616, "\u06a9\u0646\u062c": 1617, "\u0627\u0635\u062d\u0627\u0628": 1618, "\u0646\u0627\u062e\u0646": 1619, "\u06a9\u0648\u062b\u0631": 1620, "\u0634\u0631\u062d": 1621, "\u0628\u0646\u06cc\u0627\u062f": 1622, "\u0646\u06af\u0630\u0627\u0631\u0646\u062f": 1623, "\u06a9\u0627\u0647": 1624, "\u0633\u0632\u062f": 1625, "\u0635\u0641\u0627\u062a": 1626, "\u0646\u0648\u0627": 1627, "\u0631\u0642\u0635": 1628, "\u067e\u0644": 1629, "\u062a\u062e\u062a\u0647": 1630, "\u067e\u06cc\u0648\u0646\u062f": 1631, "\u06a9\u0627\u0631\u0645": 1632, "\u0642\u0631\u06cc\u0646": 1633, "\u0686\u06cc\u0632\u06cc": 1634, "\u0635\u0644\u062d": 1635, "\u0635\u0628\u0648\u062d": 1636, "\u0644\u0637\u06cc\u0641": 1637, "\u0646\u0628\u06cc\u0646\u0645": 1638, "\u0630\u0648\u0642": 1639, "\u0645\u0633\u062a\u0627\u0646": 1640, "\u062a\u062d\u0645\u0644": 1641, "\u0628\u0648": 1642, "\u0622\u0648\u0631": 1643, "\u0622\u0634\u0646\u0627": 1644, "\u062f\u0648\u0627": 1645, "\u0628\u0632\u0646": 1646, "\u062f\u062e\u062a\u0631": 1647, "\u0631\u0628": 1648, "\u0632\u0627\u06cc\u062f": 1649, "\u062f\u0631\u0648\u06cc\u0634\u0627\u0646": 1650, "\u0633\u067e\u0627\u0647": 1651, "\u0627\u06a9\u0628\u0631": 1652, "\u0633\u06a9\u0646\u062f\u0631": 1653, "\u0631\u0633\u0646": 1654, "\u062c\u0646\u0627\u0646": 1655, "\u0628\u0646\u0641\u0634\u0647": 1656, "\u0632\u0646\u062f\u06af\u06cc": 1657, "\u0646\u0627\u0641\u0647": 1658, "\u0633\u0648\u0633\u0646": 1659, "\u0628\u0627\u062f\u0627": 1660, "\u062a\u0646\u0645": 1661, "\u062f\u0627\u0648\u0631": 1662, "\u0633\u062a\u0627\u0646": 1663, "\u062f\u0641\u0639": 1664, "\u0639\u0630\u0627\u0628": 1665, "\u0632\u0644\u0641\u0634": 1666, "\u0631\u0641\u062a\u0645": 1667, "\u0633\u0631\u0645\u0633\u062a": 1668, "\u06af\u0631\u06cc\u062e\u062a": 1669, "\u0686\u067e": 1670, "\u0644\u0628\u0627\u0633": 1671, "\u0646\u06a9\u0646\u0646\u062f": 1672, "\u0628\u0627\u0642\u06cc": 1673, "\u062d\u0642\u0627": 1674, "\u067e\u06cc\u0645\u0627\u0646": 1675, "\u0633\u06af\u06cc": 1676, "\u0632\u0639\u0641\u0631\u0627\u0646": 1677, "\u06a9\u062c\u0627\u0633\u062a": 1678, "\u062a\u0648\u062d\u06cc\u062f": 1679, "\u0686\u0634\u0645\u06cc": 1680, "\u0647\u0631\u062f\u0648": 1681, "\u0628\u0634\u06a9\u0633\u062a": 1682, "\u0628\u06cc\u0647\u062f\u0647": 1683, "\u0634\u0648\u062e\u06cc": 1684, "\u062f\u0648\u0627\u0646": 1685, "\u0628\u0627\u062f\u06cc": 1686, "\u06af\u062f\u0627\u06cc\u06cc": 1687, "\u0646\u0648\u06a9": 1688, "\u06af\u0634\u062a\u06cc": 1689, "\u0642\u0628\u0644": 1690, "\u0646\u0638\u0631\u06cc": 1691, "\u067e\u0633\u062a\u0627\u0646": 1692, "\u062e\u0627\u0633\u062a": 1693, "\u0628\u0648\u0633": 1694, "\u0627\u0641\u0644\u0627\u06a9": 1695, "\u06af\u0631\u062f\u0645": 1696, "\u06af\u06cc\u0631\u0645": 1697, "\u062c\u0648\u0634": 1698, "\u0634\u06a9\u0648\u0641\u0647": 1699, "\u0645\u0635\u0627\u0641": 1700, "\u0645\u063a\u0631\u0628": 1701, "\u06af\u0631\u0646\u0647": 1702, "\u0647\u0641\u062a\u0647": 1703, "\u0645\u0642\u0635\u0648\u062f": 1704, "\u0627\u0646\u062f\u0631\u0648\u0646": 1705, "\u0648\u0631\u0627\u06cc": 1706, "\u0646\u0642\u0644": 1707, "\u06a9\u0641\u0646": 1708, "\u0639\u0631\u0627\u0642": 1709, "\u062d\u0627\u062a\u0645": 1710, "\u0646\u062e\u0644": 1711, "\u06af\u0631\u0641\u062a\u0627\u0631": 1712, "\u062c\u0648\u0634\u0646": 1713, "\u063a\u0641\u0644\u062a": 1714, "\u0622\u063a\u0648\u0634": 1715, "\u0632\u062d\u0644": 1716, "\u06a9\u0631\u06cc\u0645": 1717, "\u0635\u0648\u0641\u06cc": 1718, "\u062f\u0627\u06cc\u0647": 1719, "\u0628\u0627\u062f\u06cc\u0647": 1720, "\u062f\u0633\u062a\u0645": 1721, "\u0686\u0627\u06a9\u0631": 1722, "\u062e\u0633": 1723, "\u0646\u0635\u06cc\u0628": 1724, "\u0622\u0647\u0646\u06af": 1725, "\u0639\u0642\u0628\u06cc": 1726, "\u0628\u06cc\u0634\u062a\u0631": 1727, "\u0646\u0639\u0631\u0647": 1728, "\u0627\u0648\u062c": 1729, "\u0628\u0633\u0648\u062e\u062a": 1730, "\u06af\u0648\u0647\u0631\u06cc": 1731, "\u0628\u062a\u0627\u0646": 1732, "\u062c\u06cc\u0628": 1733, "\u0647\u0633\u062a\u0645": 1734, "\u0641\u06cc\u0636": 1735, "\u0632\u0631\u0642": 1736, "\u062f\u0645\u0627\u063a": 1737, "\u06af\u0631\u062f\u0634": 1738, "\u0645\u062f\u062f": 1739, "\u0639\u0641\u0648": 1740, "\u0639\u0632\u0644\u062a": 1741, "\u0639\u0645\u0631\u06cc": 1742, "\u0633\u0641\u0644\u0647": 1743, "\u0632\u0628\u0627\u0646\u06cc": 1744, "\u062d\u0631\u0632": 1745, "\u0633\u0627\u063a\u0631": 1746, "\u0633\u062c\u0648\u062f": 1747, "\u0641\u0631\u0634\u062a\u0647": 1748, "\u063a\u0646\u0686\u0647": 1749, "\u06cc\u0645\u06cc\u0646": 1750, "\u0628\u0648\u062f\u0646": 1751, "\u0633\u0627\u06a9\u0646": 1752, "\u0636\u0639\u06cc\u0641": 1753, "\u0627\u0641\u06a9\u0646\u062f\u0647": 1754, "\u0633\u0627\u0632\u0645": 1755, "\u067e\u0631\u0648\u0631": 1756, "\u0634\u0647\u0631\u06cc": 1757, "\u0631\u0648\u06cc\u0645": 1758, "\u0646\u0648\u0631\u0648\u0632": 1759, "\u0628\u0646\u062f\u06af\u0627\u0646": 1760, "\u0622\u0628\u0631\u0648\u06cc": 1761, "\u0645\u06cc\u0627\u0646\u0647": 1762, "\u0632\u0646\u06af": 1763, "\u0641\u0631\u062f": 1764, "\u0646\u0647\u0646\u062f": 1765, "\u062d\u0627\u0636\u0631": 1766, "\u067e\u0627\u06cc\u06cc": 1767, "\u0631\u0627\u06cc\u06af\u0627\u0646": 1768, "\u0646\u067e\u0630\u06cc\u0631\u062f": 1769, "\u06a9\u062a\u0627\u0628": 1770, "\u0644\u0630\u062a": 1771, "\u0628\u0644\u0627\u06cc": 1772, "\u0631\u0633\u06cc\u062f\u0647": 1773, "\u062d\u0631\u0645\u062a": 1774, "\u0632\u0647": 1775, "\u0642\u0627\u0636\u06cc": 1776, "\u0641\u062f\u0627\u06cc": 1777, "\u06cc\u0627\u0641\u062a\u0645": 1778, "\u0646\u06a9\u0648\u0633\u062a": 1779, "\u0633\u0648\u062e\u062a": 1780, "\u0645\u0632\u0627\u062c": 1781, "\u062f\u06cc\u0646\u0627\u0631": 1782, "\u0646\u06cc\u06a9\u06cc": 1783, "\u0634\u06cc\u0631\u0627\u0646": 1784, "\u062f\u0631\u06cc\u063a\u0627": 1785, "\u0645\u0648\u0634": 1786, "\u0628\u06af\u0631\u0641\u062a": 1787, "\u062f\u06cc\u06af": 1788, "\u0628\u0631\u062f\u0627\u0631": 1789, "\u062c\u062f": 1790, "\u0645\u062e\u062a\u0635\u0631": 1791, "\u0633\u0642\u0631": 1792, "\u0639\u062f\u0644\u0634": 1793, "\u06af\u0631\u0648": 1794, "\u0631\u06cc\u0627": 1795, "\u0645\u0634\u063a\u0648\u0644": 1796, "\u06af\u0631\u06cc": 1797, "\u0634\u062f\u0646\u0645": 1798, "\u062f\u0634\u062a": 1799, "\u0632\u0627\u0631\u06cc": 1800, "\u0645\u0631\u063a\u06cc": 1801, "\u0628\u062f\u0627\u0631": 1802, "\u0627\u0631\u0627\u062f\u062a": 1803, "\u0635\u0646\u0639": 1804, "\u0645\u0633\u062c\u062f": 1805, "\u0628\u0627\u06cc\u062f\u062a": 1806, "\u0645\u0627\u0646\u06cc": 1807, "\u06af\u0631\u0641\u062a\u06cc": 1808, "\u0634\u0628\u0627\u0646": 1809, "\u0638\u0627\u0644\u0645": 1810, "\u0633\u06cc": 1811, "\u0628\u062f\u0633\u062a": 1812, "\u0642\u0628\u0627\u06cc": 1813, "\u0628\u062f\u06cc\u062f": 1814, "\u0622\u0648\u0627\u0632\u0647": 1815, "\u0634\u0647\u062f": 1816, "\u062a\u0633\u0644\u06cc\u0645": 1817, "\u0632\u06cc\u0648\u0631": 1818, "\u0632\u0644\u0641\u062a": 1819, "\u0647\u062f\u06cc": 1820, "\u0622\u0628\u0627\u062f": 1821, "\u0639\u0646\u0627": 1822, "\u067e\u06cc\u0631\u0647\u0646": 1823, "\u06a9\u0648\u062a\u0627\u0647": 1824, "\u0628\u0631\u062f\u0646": 1825, "\u0686\u0634\u0645\u0634": 1826, "\u0628\u0631\u062f\u0627\u0634\u062a": 1827, "\u062a\u0631\u0634": 1828, "\u063a\u0627\u0631": 1829, "\u06af\u0646\u062f\u0645": 1830, "\u067e\u0648\u0634\u062f": 1831, "\u0646\u06cc\u0627\u0645\u062f": 1832, "\u0628\u0686\u0647": 1833, "\u062e\u0648": 1834, "\u062e\u062c\u0644": 1835, "\u0635\u0648\u0627\u0628": 1836, "\u06a9\u06cc\u0627\u0646": 1837, "\u0633\u0647\u0644": 1838, "\u0641\u06a9\u0631": 1839, "\u062a\u0631\u06cc": 1840, "\u0637\u0628\u06cc\u0639\u062a": 1841, "\u067e\u0627\u062f\u0634\u0627": 1842, "\u0645\u0647\u062f\u06cc": 1843, "\u0631\u0632\u0642": 1844, "\u0634\u06a9": 1845, "\u062a\u06cc\u063a\u0634": 1846, "\u062a\u0633\u0628\u06cc\u062d": 1847, "\u0627\u0645\u0646": 1848, "\u0634\u06a9\u0627\u06cc\u062a": 1849, "\u0627\u0645\u0634\u0628": 1850, "\u062e\u0648\u0627\u0646\u0645": 1851, "\u0633\u0631\u0627\u0628": 1852, "\u0632\u0648\u0627\u0644": 1853, "\u0639\u0632\u06cc\u0632\u0627\u0646": 1854, "\u0637\u0631\u0641\u0647": 1855, "\u0631\u06cc\u0632\u062f": 1856, "\u0631\u062d\u0645": 1857, "\u0631\u0641\u062a\u06cc": 1858, "\u06af\u06cc\u0627": 1859, "\u0631\u0648\u062d\u0627\u0646\u06cc": 1860, "\u0639\u06a9\u0633": 1861, "\u0633\u06cc\u0645\u0631\u063a": 1862, "\u0627\u0633\u062a\u0627\u062f": 1863, "\u0634\u0628\u0647": 1864, "\u0632\u0646\u06af\u06cc": 1865, "\u062e\u0631\u0645\u0627": 1866, "\u0639\u0645": 1867, "\u0634\u0641\u0642": 1868, "\u0645\u0647\u062a\u0631": 1869, "\u062e\u0627\u0645\u0648\u0634": 1870, "\u0634\u0641\u0627": 1871, "\u0628\u0631\u0633\u062f": 1872, "\u06af\u0630\u0631\u062f": 1873, "\u0642\u0627\u0644": 1874, "\u062d\u062c\u0631\u0647": 1875, "\u0634\u0646\u06cc\u062f\u06cc": 1876, "\u062c\u0627\u0647\u0644": 1877, "\u063a\u0627\u0631\u062a": 1878, "\u0631\u0627\u0646\u062f\u0647": 1879, "\u0622\u0634\u06a9\u0627\u0631": 1880, "\u0645\u0648\u06cc\u06cc": 1881, "\u06af\u0631\u0641\u062a\u0645": 1882, "\u0646\u06a9\u0631\u062f\u06cc": 1883, "\u062e\u0644\u0642\u06cc": 1884, "\u06af\u0648\u0646": 1885, "\u0645\u0631\u062f\u0645\u0627\u0646": 1886, "\u0633\u0632\u0627\u06cc": 1887, "\u0644\u0637\u0627\u0641\u062a": 1888, "\u0637\u0644\u0639\u062a": 1889, "\u0628\u0631\u0622\u0631": 1890, "\u062f\u0647\u06cc\u062f": 1891, "\u0646\u06cc\u0646\u062f": 1892, "\u0632\u06cc\u0628": 1893, "\u06a9\u0634\u0627\u0646": 1894, "\u0631\u0648\u0646\u0642": 1895, "\u06af\u0631\u0632": 1896, "\u0645\u0627\u062a\u0645": 1897, "\u0634\u0648\u0631\u06cc\u062f\u0647": 1898, "\u067e\u06cc\u0631\u0627\u0646": 1899, "\u0627\u0641\u06a9\u0646\u062f": 1900, "\u062f\u0631\u062c": 1901, "\u062d\u0644\u0647": 1902, "\u063a\u0631\u0647": 1903, "\u0642\u0633\u0645": 1904, "\u0631\u0627\u0636\u06cc": 1905, "\u0644\u0628\u0634": 1906, "\u0631\u0633\u0627\u0646": 1907, "\u0645\u0634\u062a\u0627\u0642": 1908, "\u0628\u0647\u06cc": 1909, "\u0639\u0646\u0635\u0631\u06cc": 1910, "\u0628\u062f\u06cc\u062f\u0645": 1911, "\u0633\u06cc\u0627\u0647\u06cc": 1912, "\u0647\u06cc\u0628\u062a": 1913, "\u062c\u0627\u0648\u06cc\u062f": 1914, "\u062e\u0648\u0627\u0631\u06cc": 1915, "\u0633\u0627\u0645\u0627\u0646": 1916, "\u062a\u0646\u0634": 1917, "\u0648\u06cc\u0631\u0627\u0646": 1918, "\u06cc\u0645\u0646": 1919, "\u0628\u0627\u062f\u062a": 1920, "\u062c\u0648\u0632\u0627": 1921, "\u06af\u062f\u0627\u06cc": 1922, "\u0633\u0627\u062e\u062a\u0646": 1923, "\u0622\u0646\u0686\u0646\u0627\u0646": 1924, "\u0632\u062e\u0645\u0647": 1925, "\u0635\u0627\u0641\u06cc": 1926, "\u0639\u0634\u0642\u0634": 1927, "\u0635\u062f\u0647\u0632\u0627\u0631\u0627\u0646": 1928, "\u06a9\u0631": 1929, "\u0642\u0641\u0644": 1930, "\u0686\u0646\u062f\u06cc": 1931, "\u0627\u0645\u062a\u062d\u0627\u0646": 1932, "\u0627\u0646\u06af\u0628\u06cc\u0646": 1933, "\u0627\u0628\u0631\u0648\u06cc": 1934, "\u062e\u0644\u0639\u062a": 1935, "\u0646\u06a9\u0648\u06cc\u06cc": 1936, "\u062c\u0632\u0639": 1937, "\u062d\u0633": 1938, "\u067e\u06cc\u0645\u0628\u0631": 1939, "\u0645\u062d\u06a9\u0645": 1940, "\u0628\u06af\u0630\u0631": 1941, "\u0645\u0635\u0644\u062d\u062a": 1942, "\u0628\u0644\u06a9\u0647": 1943, "\u062e\u0634\u062a": 1944, "\u0631\u0632\u0645": 1945, "\u06af\u0644\u0634\u0646": 1946, "\u062f\u0634\u0645\u0646\u06cc": 1947, "\u0647\u0631\u0632\u0647": 1948, "\u0627\u0646\u062f\u06a9": 1949, "\u06a9\u06cc\u0633\u062a\u06cc": 1950, "\u0686\u0634\u0645\u062a": 1951, "\u0647\u0631\u06a9\u062c\u0627": 1952, "\u0631\u0646\u06af\u06cc": 1953, "\u06af\u0630\u0627\u0631": 1954, "\u0641\u0631\u0627\u0645\u0648\u0634": 1955, "\u062f\u0648\u0631\u06cc": 1956, "\u0638\u0644": 1957, "\u0646\u0627\u0645\u0634": 1958, "\u0622\u06cc\u0646\u062f": 1959, "\u0633\u062f\u0631\u0647": 1960, "\u062d\u06cc\u0641": 1961, "\u062e\u0633\u0627\u0646": 1962, "\u063a\u0631\u0636": 1963, "\u0627\u0645\u06a9\u0627\u0646": 1964, "\u062f\u0627\u0634\u062a\u06cc": 1965, "\u0627\u0628\u0631\u0648": 1966, "\u06af\u0641\u062a\u0634": 1967, "\u062c\u0646\u0633": 1968, "\u0641\u0633\u0627\u062f": 1969, "\u0633\u0631\u06cc\u0631": 1970, "\u0627\u0633\u0628\u0627\u0628": 1971, "\u0645\u0633\u0644\u0645\u0627\u0646\u06cc": 1972, "\u0646\u0627\u0641": 1973, "\u0642\u0631\u0628\u0627\u0646": 1974, "\u067e\u06cc\u06a9\u0627\u0631": 1975, "\u0639\u0627\u0642\u0644\u0627\u0646": 1976, "\u062e\u0648\u062f\u06cc": 1977, "\u0646\u0645\u0627\u06cc\u06cc": 1978, "\u0645\u0645\u06a9\u0646": 1979, "\u062c\u0633\u062a\u0646": 1980, "\u06cc\u0627\u0641\u062a\u0646": 1981, "\u062e\u0627\u0637\u0631\u0645": 1982, "\u06af\u0646\u062c\u062f": 1983, "\u0622\u0634\u06cc\u0627\u0646": 1984, "\u062d\u0635\u0627\u0631": 1985, "\u0633\u0631\u0627\u0646": 1986, "\u0627\u0632\u0627\u0646": 1987, "\u0647\u06cc\u0646": 1988, "\u06af\u0634\u062a\u0645": 1989, "\u0633\u062e\u062a\u06cc": 1990, "\u0627\u0634": 1991, "\u06a9\u062a": 1992, "\u0645\u0647\u0631\u0628\u0627\u0646": 1993, "\u0645\u0639\u0644\u0648\u0645": 1994, "\u0627\u062d\u0648\u0627\u0644": 1995, "\u0646\u0627\u0632\u0646\u06cc\u0646": 1996, "\u062f\u0627\u062f\u0645": 1997, "\u0632\u0645\u0632\u0645": 1998, "\u0637\u0648\u0628\u06cc": 1999, "\u067e\u0644\u0646\u06af": 2000, "\u0628\u0631\u06cc\u062f": 2001, "\u0647\u0646\u062f\u0648\u06cc": 2002, "\u0633\u0631\u062a": 2003, "\u0645\u06a9\u0647": 2004, "\u0635\u0648\u0631\u062a\u06cc": 2005, "\u0634\u0639\u0627\u0631": 2006, "\u0686\u062a\u0631": 2007, "\u062f\u0627\u0631\u0627\u0646": 2008, "\u0628\u0631\u0647": 2009, "\u0645\u0632\u062f": 2010, "\u0628\u0646\u0627\u0646": 2011, "\u0642\u0636\u0627\u06cc": 2012, "\u0646\u062f\u0627\u062f": 2013, "\u062e\u0644\u0627\u0635": 2014, "\u062f\u0644\u0642": 2015, "\u0628\u0648\u06cc\u06cc": 2016, "\u0628\u062e\u0634\u06cc": 2017, "\u0631\u0639\u0646\u0627": 2018, "\u0635\u062d\u0631\u0627\u06cc": 2019, "\u062a\u0627\u0631\u06cc\u06a9": 2020, "\u0631\u06cc\u0632\u0647": 2021, "\u0645\u062c\u0646\u0648\u0646": 2022, "\u0645\u063a\u0627\u0646": 2023, "\u0628\u0627\u0646": 2024, "\u06af\u0644\u0647": 2025, "\u062e\u0631\u06cc": 2026, "\u0628\u0648\u0628\u06a9\u0631": 2027, "\u067e\u0627\u06cc\u0634": 2028, "\u062f\u0627\u06cc\u0631\u0647": 2029, "\u0636\u0627\u06cc\u0639": 2030, "\u0633\u0627\u0639\u062a\u06cc": 2031, "\u0645\u0631\u06cc\u062f": 2032, "\u0628\u06cc\u0647\u0648\u062f\u0647": 2033, "\u0627\u0639\u0638\u0645": 2034, "\u062c\u0646\u0628\u0634": 2035, "\u0641\u0631\u06cc\u0628": 2036, "\u0627\u062a\u0641\u0627\u0642": 2037, "\u0639\u0634\u0631\u062a": 2038, "\u0645\u06cc\u062e": 2039, "\u0639\u0637\u0633\u0647": 2040, "\u062a\u062d\u0642\u06cc\u0642": 2041, "\u062a\u0648\u0641\u06cc\u0642": 2042, "\u062a\u0642\u062f\u06cc\u0631": 2043, "\u0632\u0628\u0648\u0646": 2044, "\u062a\u06cc\u0645\u0627\u0631": 2045, "\u0632\u0627\u0647\u062f": 2046, "\u06cc\u06a9\u0633\u0627\u0646": 2047, "\u062a\u0648\u0627\u0646\u0645": 2048, "\u067e\u0631\u0633\u06cc": 2049, "\u0628\u06a9\u0631": 2050, "\u0628\u0633\u0627\u0632": 2051, "\u0637\u0639\u0646\u0647": 2052, "\u0646\u0627\u0645\u062a": 2053, "\u0641\u0627\u06cc\u062f\u0647": 2054, "\u0642\u062d\u0637": 2055, "\u0633\u0631\u0648\u0631": 2056, "\u0646\u0633\u0628\u062a": 2057, "\u0648\u0627\u0645": 2058, "\u0645\u0628\u0627\u0631\u06a9": 2059, "\u0639\u0645\u0631\u062a": 2060, "\u0628\u0628\u0633\u062a": 2061, "\u062a\u0645\u06a9\u06cc\u0646": 2062, "\u0631\u0642\u06cc\u0628": 2063, "\u0628\u0631\u062e\u06cc\u0632\u062f": 2064, "\u0634\u0627\u0646\u0647": 2065, "\u062f\u0639\u0648\u062a": 2066, "\u0645\u0648\u0645": 2067, "\u062c\u0627\u0646\u0647\u0627": 2068, "\u0641\u0636\u0648\u0644": 2069, "\u0648\u0632\u06cc\u0631": 2070, "\u0646\u062d\u0644": 2071, "\u0635\u0631\u0641": 2072, "\u06a9\u0631\u062f\u0633\u062a": 2073, "\u0646\u0627\u06cc\u0628": 2074, "\u062f\u0631\u0622\u06cc\u062f": 2075, "\u0645\u062f\u0627\u0645": 2076, "\u063a\u0645\u0627\u0632": 2077, "\u0646\u0639\u0634": 2078, "\u062e\u0648\u0627\u0646\u0646\u062f": 2079, "\u0633\u0644\u0633\u0644\u0647": 2080, "\u0627\u0648\u0641\u062a\u0627\u062f\u0647": 2081, "\u06a9\u0627\u0641\u0648\u0631": 2082, "\u0634\u06cc\u0631\u0627\u0632": 2083, "\u062a\u0631\u0627\u0633\u062a": 2084, "\u0639\u06cc\u062f\u06cc": 2085, "\u0633\u06cc\u0645\u0627\u0628": 2086, "\u0647\u0644": 2087, "\u0628\u0627\u0631\u0647": 2088, "\u0631\u062e\u0646\u0647": 2089, "\u062a\u0631\u0633": 2090, "\u0633\u0631\u0645\u0627\u06cc\u0647": 2091, "\u0644\u06cc\u0644\u06cc": 2092, "\u0631\u0642\u0645": 2093, "\u0646\u0627\u062a\u0648\u0627\u0646": 2094, "\u0622\u0647\u0648\u06cc": 2095, "\u0634": 2096, "\u062f\u0631\u0648\u063a": 2097, "\u0641\u062f\u0627": 2098, "\u0631\u0633\u06cc": 2099, "\u06af\u0644\u0627\u0628": 2100, "\u0631\u0627\u0647\u06cc": 2101, "\u0645\u06cc\u063a": 2102, "\u067e\u06cc\u0686": 2103, "\u067e\u0646\u062f\u0627\u0631\u06cc": 2104, "\u0628\u0634\u0648\u06cc": 2105, "\u0628\u06af\u0648\u06cc\u0645": 2106, "\u06af\u0631\u0634": 2107, "\u0634\u0639\u0644\u0647": 2108, "\u0628\u0645\u0627\u0646\u062f\u0647": 2109, "\u06a9\u0648\u062f\u06a9": 2110, "\u0645\u062d\u0631\u0627\u0628": 2111, "\u06a9\u0627\u0634": 2112, "\u0627\u0698\u062f\u0647\u0627": 2113, "\u0628\u0631\u062c": 2114, "\u062b\u0631\u06cc\u0627": 2115, "\u0627\u0646\u062f\u0627\u0632\u0647": 2116, "\u0637\u0627\u0644\u0628": 2117, "\u0647\u0632\u0644": 2118, "\u0635\u062d\u0646": 2119, "\u0645\u0698\u06af\u0627\u0646": 2120, "\u0631\u0645\u0632": 2121, "\u067e\u0627\u06a9\u06cc\u0632\u0647": 2122, "\u0686\u0648\u0646\u0627\u0646": 2123, "\u0628\u0646\u0627\u0645\u06cc\u0632\u062f": 2124, "\u0642\u0628\u0647": 2125, "\u0646\u0627\u0628": 2126, "\u062e\u0628\u0631\u06cc": 2127, "\u0637\u0639\u0645\u0647": 2128, "\u06af\u0641\u062a\u0646\u062f": 2129, "\u0645\u0628\u06cc\u0646": 2130, "\u0639\u0627\u0645\u0647": 2131, "\u0628\u06af\u06cc\u0631": 2132, "\u0628\u06af\u06cc\u0631\u062f": 2133, "\u0639\u0646": 2134, "\u0632\u0644\u0641\u06cc\u0646": 2135, "\u0644\u0639\u0628\u062a": 2136, "\u062c\u0645\u0627\u0644\u062a": 2137, "\u0622\u0645\u062f\u0646": 2138, "\u0627\u0641\u0632\u0648\u0646": 2139, "\u0627\u0644\u062d\u0642": 2140, "\u0628\u062c\u0632": 2141, "\u0642\u062f\u06cc\u0645": 2142, "\u0634\u0646\u0648": 2143, "\u06a9\u0631\u062f\u06cc\u0645": 2144, "\u0646\u062c\u0627\u062a": 2145, "\u0627\u0641\u0639\u06cc": 2146, "\u062c\u062f\u0627\u06cc\u06cc": 2147, "\u062a\u0631\u06a9\u0627\u0646": 2148, "\u0633\u062e\u0646\u06cc": 2149, "\u0627\u0646\u0634\u0627": 2150, "\u0631\u0641\u06cc\u0642": 2151, "\u0645\u0644\u06a9\u0648\u062a": 2152, "\u0627\u0645\u062a": 2153, "\u0628\u06a9\u0634": 2154, "\u0646\u0647\u0646\u06af": 2155, "\u0627\u0646\u062c\u0645\u0646": 2156, "\u06a9\u0631\u062f\u0645\u06cc": 2157, "\u0622\u06cc\u0645": 2158, "\u0645\u0634\u06a9\u0644": 2159, "\u0642\u0631\u0627\u0646": 2160, "\u0627\u062e\u0633\u062a\u0627\u0646": 2161, "\u0639\u0635\u0645\u062a": 2162, "\u06cc\u0639\u0642\u0648\u0628": 2163, "\u067e\u0648\u0633\u062a\u06cc\u0646": 2164, "\u062f\u0631\u06cc\u0627\u0628": 2165, "\u06cc\u0627\u062f\u06af\u0627\u0631": 2166, "\u0622\u0648\u0631\u06cc": 2167, "\u0645\u0646\u06af\u0631": 2168, "\u0648\u0635\u0644\u062a": 2169, "\u0622\u062e\u0631\u062a": 2170, "\u063a\u0627\u0644\u06cc\u0647": 2171, "\u0645\u062f\u0639\u06cc": 2172, "\u0627\u0644\u0645": 2173, "\u06af\u0634\u0627\u06cc\u062f": 2174, "\u0628\u0646\u0634\u0633\u062a": 2175, "\u0627\u0646\u062f\u0627\u0645": 2176, "\u0646\u0633\u0628": 2177, "\u0633\u06cc\u062f": 2178, "\u062e\u0637\u0647": 2179, "\u0645\u062c\u0627\u0632": 2180, "\u062e\u0648\u0634\u06cc": 2181, "\u0648\u0644\u0627\u06cc\u062a": 2182, "\u0622\u0645\u062f\u0633\u062a": 2183, "\u067e\u0646\u062f\u0627\u0631": 2184, "\u0646\u0628\u0627\u0634\u06cc": 2185, "\u062c\u0627\u0646\u0627": 2186, "\u0645\u062d\u06cc\u0637": 2187, "\u0634\u0646\u0627\u0633\u062f": 2188, "\u0648\u06af\u0631\u0646\u0647": 2189, "\u0627\u06cc\u0646\u0633\u062a": 2190, "\u0645\u0646\u0628\u0631": 2191, "\u0628\u0627\u0644\u0634": 2192, "\u0632\u0628\u0631": 2193, "\u0639\u0646\u0627\u06cc\u062a": 2194, "\u0633\u06a9\u0647": 2195, "\u0645\u0628\u06cc\u0646\u0627\u0645": 2196, "\u0648\u0641\u0627\u06cc\u06cc": 2197, "\u0638\u0646": 2198, "\u0641\u0631\u0639\u0648\u0646": 2199, "\u0633\u062d\u0627\u0628": 2200, "\u06af\u0631\u0633\u0646\u0647": 2201, "\u0646\u0634\u0627\u0646\u062f": 2202, "\u0628\u0631\u06cc\u0627\u0646": 2203, "\u062a\u0646\u06cc": 2204, "\u0648\u062d\u062f\u062a": 2205, "\u062e\u0632\u06cc\u0646\u0647": 2206, "\u06af\u0644\u0632\u0627\u0631": 2207, "\u0645\u062d\u0645\u0648\u062f": 2208, "\u062a\u0627\u0628\u0648\u062a": 2209, "\u06af\u06cc\u0631\u0646\u062f": 2210, "\u0646\u06cc\u0645\u0647": 2211, "\u0631\u0648\u0646\u062f": 2212, "\u0628\u0634\u0631": 2213, "\u0639\u0627\u0631\u0641\u0627\u0646": 2214, "\u0639\u0627\u062f\u062a": 2215, "\u0634\u06cc\u0631\u06cc\u0646\u06cc": 2216, "\u063a\u0632\u0646\u06cc\u0646": 2217, "\u0627\u0646\u062f\u0627\u062e\u062a": 2218, "\u0628\u0631\u0628\u0637": 2219, "\u062f\u06cc\u0628\u0627": 2220, "\u0628\u0631\u0641": 2221, "\u062f\u06cc\u062f\u0633\u062a\u0646\u062f": 2222, "\u067e\u06cc\u0634\u0634": 2223, "\u0646\u06af\u0648\u06cc\u062f": 2224, "\u0622\u06af\u0627\u0647": 2225, "\u062e\u062f\u0627\u06cc\u0627": 2226, "\u0639\u0627\u0631\u0641": 2227, "\u0646\u062e\u0648\u0631\u062f": 2228, "\u0622\u0633\u06cc\u0628": 2229, "\u0627\u0644\u0642\u062f\u0633": 2230, "\u0642\u0627\u0628\u0644": 2231, "\u0646\u0627\u062f\u0627\u0646\u06cc": 2232, "\u0627\u0646\u0633\u0627\u0646": 2233, "\u0628\u0631\u06af\u0631\u0641\u062a": 2234, "\u0645\u0627\u0646": 2235, "\u0628\u0627\u0637\u0646": 2236, "\u067e\u06cc\u063a\u0645\u0628\u0631": 2237, "\u067e\u0633\u062a\u0647": 2238, "\u0647\u0631\u06a9\u0633": 2239, "\u0639\u0628\u0627\u062f\u062a": 2240, "\u0634\u0627\u0639\u0631\u06cc": 2241, "\u0645\u06af\u06cc\u0631": 2242, "\u0647\u0645\u0631\u0647": 2243, "\u0633\u0627\u0644\u0627\u0631": 2244, "\u0627\u0648\u0641\u062a\u0627\u062f": 2245, "\u062a\u0627\u0631\u06a9": 2246, "\u0630\u0644": 2247, "\u0627\u0634\u062a\u0631": 2248, "\u0641\u0631\u0627\u0642\u062a": 2249, "\u0646\u0627\u0645\u06cc": 2250, "\u0642\u0637\u0628": 2251, "\u0634\u0631\u06cc\u0639\u062a": 2252, "\u0646\u0631": 2253, "\u06a9\u0628\u06a9": 2254, "\u0639\u0630\u0631\u0627": 2255, "\u06af\u0631\u06cc\u0627\u0646": 2256, "\u062c\u0627\u0646\u0628": 2257, "\u0633\u067e\u0627\u0633": 2258, "\u0645\u0646\u0638\u0631": 2259, "\u0637\u06cc\u0644\u0633\u0627\u0646": 2260, "\u0631\u0633\u0627\u0646\u062f": 2261, "\u0622\u0646\u06cc": 2262, "\u0633\u0627\u0642": 2263, "\u0644\u0647\u0648": 2264, "\u062d\u062c\u0631": 2265, "\u0633\u0631\u0634\u06a9": 2266, "\u062d\u0633\u0648\u062f": 2267, "\u0636\u0639\u0641": 2268, "\u0631\u06a9\u0646": 2269, "\u0641\u0631\u0627\u062e": 2270, "\u062a\u06a9\u0644\u0641": 2271, "\u06af\u0646\u062f\u0647": 2272, "\u0635\u062f\u0647\u0632\u0627\u0631": 2273, "\u0646\u06af\u0631\u062f\u06cc": 2274, "\u0628\u062c\u0627\u06cc": 2275, "\u0631\u06cc\u0633\u0645\u0627\u0646": 2276, "\u062a\u0631\u0628\u06cc\u062a": 2277, "\u067e\u06cc\u0648\u0633\u062a": 2278, "\u0637\u0641\u0644\u06cc": 2279, "\u0645\u0642\u062f\u0627\u0631": 2280, "\u0628\u062f\u0645": 2281, "\u0631\u0637\u0644": 2282, "\u0633\u0631\u0648\u06cc": 2283, "\u0646\u0648\u0628\u0647\u0627\u0631": 2284, "\u0646\u0647\u06cc\u0645": 2285, "\u0639\u0645\u0631\u0645": 2286, "\u0646\u0627\u06af\u0627\u0647": 2287, "\u062f\u0641": 2288, "\u0647\u0631\u06a9\u0631\u0627": 2289, "\u0646\u06cc\u06a9\u0648\u06cc\u06cc": 2290, "\u0628\u0631\u0627\u0646\u062f": 2291, "\u0646\u0648\u0639": 2292, "\u0628\u062f\u0646": 2293, "\u0648\u0627\u06cc": 2294, "\u0628\u0646\u0645\u0627\u06cc\u062f": 2295, "\u0633\u0646\u06af\u06cc\u0646": 2296, "\u0637\u0631\u0647": 2297, "\u067e\u0630\u06cc\u0631": 2298, "\u067e\u0631\u0648\u0631\u062f\u0647": 2299, "\u0622\u0631\u0627\u0633\u062a\u0647": 2300, "\u0645\u0631\u062f\u0646": 2301, "\u0622\u0633\u0627\u06cc\u0634": 2302, "\u0686\u0627\u06a9": 2303, "\u0632\u06cc\u0628\u0627\u06cc\u06cc": 2304, "\u0628\u0631\u0622\u0631\u0645": 2305, "\u0628\u06af\u0630\u0631\u06cc": 2306, "\u062f\u06af\u0631\u06cc": 2307, "\u0633\u0646\u062f\u0627\u0646": 2308, "\u0641\u0631\u0628\u0647": 2309, "\u062d\u0635\u0646": 2310, "\u0646\u0635\u0631\u062a": 2311, "\u0646\u0634\u06cc\u0646\u062f": 2312, "\u0646\u0638\u0627\u0631\u0647": 2313, "\u0642\u0641\u0627\u06cc": 2314, "\u063a\u0631\u0628": 2315, "\u0628\u0647\u0634\u062a\u06cc": 2316, "\u0645\u0637\u0644\u0642": 2317, "\u0631\u0648\u0645\u06cc": 2318, "\u0622\u0647\u0646\u06cc\u0646": 2319, "\u0639\u0627\u0644\u06cc": 2320, "\u0645\u0631\u062d\u0628\u0627": 2321, "\u0646\u0634\u0627\u0646\u06cc": 2322, "\u06cc\u063a\u0645\u0627": 2323, "\u0637\u0648\u0631": 2324, "\u0628\u0646\u0634\u06cc\u0646": 2325, "\u0633\u0646\u0628\u0644": 2326, "\u0622\u0641\u062a\u0627\u0628\u06cc": 2327, "\u06af\u062f\u0627": 2328, "\u0641\u0646": 2329, "\u0631\u0639\u06cc\u062a": 2330, "\u0628\u0646\u06cc": 2331, "\u06a9\u0648\u0634\u0634": 2332, "\u062e\u0648\u0646\u06cc\u0646": 2333, "\u062e\u0631\u0645\u06cc": 2334, "\u062d\u06cc\u0644\u0647": 2335, "\u06af\u0644\u0648": 2336, "\u0642\u0644": 2337, "\u0634\u0648\u0646\u062f": 2338, "\u063a\u0645\u06cc": 2339, "\u062e\u0648\u0627\u0646\u0686\u0647": 2340, "\u0634\u062a\u0631": 2341, "\u0631\u06cc\u062d\u0627\u0646": 2342, "\u0646\u06af\u0648\u0646": 2343, "\u062c\u0648\u0644\u0627\u0646": 2344, "\u0641\u06a9\u0646\u062f": 2345, "\u0646\u06cc\u0627\u0632\u06cc": 2346, "\u0645\u06cc\u0632\u0628\u0627\u0646": 2347, "\u0646\u0627\u062e\u0648\u0634": 2348, "\u06a9\u0648\u062f\u06a9\u06cc": 2349, "\u0627\u0633\u06a9\u0646\u062f\u0631": 2350, "\u0639\u0635\u0627": 2351, "\u0628\u0630\u0644": 2352, "\u06cc\u062a\u06cc\u0645": 2353, "\u0622\u0641\u0631\u06cc\u0646\u0634": 2354, "\u0628\u0634\u0648\u062f": 2355, "\u062f\u062c\u0627\u0644": 2356, "\u067e\u0627\u0633": 2357, "\u0627\u0637\u0644\u0633": 2358, "\u062e\u0635\u0645\u0627\u0646": 2359, "\u0633\u06cc\u0628": 2360, "\u06cc\u0627\u0641\u062a\u06cc": 2361, "\u0632\u06cc\u0646\u062a": 2362, "\u063a\u0644\u0637": 2363, "\u062a\u0634\u0631\u06cc\u0641": 2364, "\u0633\u0646\u06af\u06cc": 2365, "\u0627\u06cc\u0646\u0647\u0645\u0647": 2366, "\u062f\u0644\u0628\u0631\u06cc": 2367, "\u0627\u063a\u06cc\u0627\u0631": 2368, "\u067e\u0634\u0647": 2369, "\u0634\u06cc\u0634\u0647": 2370, "\u0645\u0627\u062f\u0647": 2371, "\u06a9\u0648\u06cc\u062a": 2372, "\u0627\u06cc\u0631\u0627\u0646": 2373, "\u0628\u06cc\u0633\u062a": 2374, "\u0637\u0631\u06cc\u0642\u062a": 2375, "\u0645\u06cc\u0645": 2376, "\u0628\u062e\u0648\u0627\u0646": 2377, "\u0645\u06a9\u0631": 2378, "\u06a9\u0648\u0634": 2379, "\u063a\u0645\u0634": 2380, "\u062e\u0627\u0646\u062f\u0627\u0646": 2381, "\u0634\u0646\u06cc\u062f\u0647": 2382, "\u0634\u0628\u0633\u062a\u0627\u0646": 2383, "\u0631\u0648\u0628\u0627\u0647": 2384, "\u0645\u0631\u062c\u0627\u0646": 2385, "\u0631\u0646\u06af\u06cc\u0646": 2386, "\u062e\u0637\u0627\u0628": 2387, "\u0644\u06cc": 2388, "\u0628\u0627\u0632\u062f\u0647\u06cc\u062f": 2389, "\u0627\u0644\u0645\u0648\u062a": 2390, "\u0633\u0627\u0645": 2391, "\u062a\u0645\u0627\u0634\u0627": 2392, "\u062d\u0627\u0644\u062a": 2393, "\u0646\u0648\u0634\u06cc\u0646": 2394, "\u0639\u0642\u0644\u06cc": 2395, "\u0647\u0648": 2396, "\u0646\u0648\u0627\u06cc": 2397, "\u0646\u0631\u062f\u0628\u0627\u0646": 2398, "\u0627\u0648\u0635\u0627\u0641": 2399, "\u0628\u0627\u0648\u0631": 2400, "\u0633\u062f": 2401, "\u0632\u062f\u0645": 2402, "\u062f\u062f": 2403, "\u0631\u0633\u062a": 2404, "\u0627\u0645\u0627": 2405, "\u062f\u0627\u0645\u0627\u0646": 2406, "\u0642\u0631\u0635": 2407, "\u0645\u06cc\u0632\u0627\u0646": 2408, "\u063a\u0630\u0627\u06cc": 2409, "\u0646\u0648\u06cc\u0633\u062f": 2410, "\u062f\u0648\u0644\u062a\u06cc": 2411, "\u0645\u0631\u06cc\u062e": 2412, "\u062e\u0645\u0648\u0634": 2413, "\u067e\u0646\u0628\u0647": 2414, "\u0622\u0628\u0633\u062a\u0646": 2415, "\u0646\u067e\u0646\u062f\u0627\u0631\u0645": 2416, "\u0633\u0645\u0627": 2417, "\u0633\u0627\u0644\u06cc": 2418, "\u0627\u0631\u063a\u0648\u0627\u0646": 2419, "\u0646\u0627\u0686\u0627\u0631": 2420, "\u0633\u0645\u0631": 2421, "\u0645\u0631\u0627\u0633\u062a": 2422, "\u0633\u0631\u06af\u0631\u062f\u0627\u0646": 2423, "\u0633\u062e\u0646\u0634": 2424, "\u0645\u0633\u0644\u0645\u0627\u0646": 2425, "\u0645\u0644\u0627\u06cc\u06a9": 2426, "\u062c\u0632\u0627": 2427, "\u0622\u06cc\u062f\u062a": 2428, "\u06af\u0648\u06cc\u0627": 2429, "\u062a\u0648\u0627\u0646\u06af\u0631": 2430, "\u067e\u0631\u0648\u0627\u0632": 2431, "\u062f\u0627\u0631\u06cc\u0645": 2432, "\u0632\u0622\u0646\u06a9\u0647": 2433, "\u0627\u0645\u0633\u0627\u0644": 2434, "\u0631\u063a\u0645": 2435, "\u0634\u06cc\u062e": 2436, "\u062e\u0627\u0644\u0642": 2437, "\u06a9\u0633\u0628": 2438, "\u0628\u0631\u06a9\u0646\u062f": 2439, "\u0642\u0627\u0631\u0648\u0646": 2440, "\u062b\u0627\u0646\u06cc": 2441, "\u062e\u0644\u0641": 2442, "\u06cc\u062f": 2443, "\u0627\u0628\u0644\u0647": 2444, "\u067e\u0633\u0646\u062f": 2445, "\u0646\u0631\u062f": 2446, "\u0628\u062e\u0634\u062f": 2447, "\u06af\u0648\u0634\u062a": 2448, "\u062e\u0631\u062f\u0647": 2449, "\u0647\u06cc\u0632\u0645": 2450, "\u0627\u0631\u0633\u0644\u0627\u0646": 2451, "\u0645\u0633\u0644\u0645\u0627\u0646\u0627\u0646": 2452, "\u0645\u0630\u0647\u0628": 2453, "\u06a9\u0647\u0641": 2454, "\u0645\u0646\u0647\u06cc\u062f": 2455, "\u06a9\u0644\u0628\u0647": 2456, "\u0633\u0646\u06af\u062f\u0644": 2457, "\u0646\u0647\u06cc\u0628": 2458, "\u06a9\u0627\u0646\u062f\u0631\u06cc\u0646": 2459, "\u0639\u0635\u0631": 2460, "\u0686\u06a9\u0646\u06cc": 2461, "\u0648\u062c\u0647": 2462, "\u062e\u0648\u0631\u0634": 2463, "\u0633\u067e\u0633": 2464, "\u062f\u0627\u0644": 2465, "\u06a9\u062a\u0641": 2466, "\u062a\u0642\u0635\u06cc\u0631": 2467, "\u063a\u0648\u063a\u0627": 2468, "\u06a9\u0627\u0646\u06a9\u0647": 2469, "\u06af\u0634\u0627\u06cc": 2470, "\u06af\u0630\u0634\u062a\u0647": 2471, "\u0627\u0645\u06cc\u062f\u0648\u0627\u0631": 2472, "\u0645\u0648\u06a9\u0628": 2473, "\u0645\u0647\u06cc": 2474, "\u0631\u06cc\u06af": 2475, "\u06a9\u0639\u0628\u062a\u06cc\u0646": 2476, "\u0647\u06cc\u0647\u0627\u062a": 2477, "\u0628\u0646\u0627\u06af\u0648\u0634": 2478, "\u0633\u067e\u0647": 2479, "\u06a9\u0634\u0641": 2480, "\u062f\u0631\u0647\u0645": 2481, "\u0628\u0633\u0648\u0632\u062f": 2482, "\u0627\u0639\u062a\u0645\u0627\u062f": 2483, "\u062e\u0648\u0631\u062f\u06cc": 2484, "\u0633\u067e\u06cc\u062f\u06cc": 2485, "\u06cc\u06a9\u062f\u06af\u0631": 2486, "\u0622\u0628\u06af\u06cc\u0646\u0647": 2487, "\u062f\u0631\u06cc\u062f\u0647": 2488, "\u0637\u0628\u0644": 2489, "\u06cc\u0627\u0631\u0645": 2490, "\u062d\u0634\u0645\u062a": 2491, "\u0648\u0634": 2492, "\u0646\u0634\u0646\u0648\u06cc": 2493, "\u06a9\u0644\u06cc\u0645": 2494, "\u0622\u0644\u0648\u062f": 2495, "\u062c\u06cc\u062d\u0648\u0646": 2496, "\u062e\u0648\u0641": 2497, "\u067e\u06cc\u0627\u0645": 2498, "\u0633\u0648\u0627\u062f": 2499, "\u0634\u0647\u0631\u06cc\u0627\u0631": 2500, "\u06af\u06cc\u0631\u06cc": 2501, "\u0646\u0648\u0646": 2502, "\u062f\u0634\u0646\u0627\u0645": 2503, "\u0646\u0639\u0645": 2504, "\u0631\u0632": 2505, "\u0646\u0638\u06cc\u0631": 2506, "\u062a\u0646\u062f": 2507, "\u0646\u0627\u062f\u06cc\u062f\u0647": 2508, "\u0647\u062f\u06cc\u0647": 2509, "\u0645\u06af\u0631\u062f": 2510, "\u0686\u0631\u0627\u0633\u062a": 2511, "\u0645\u0633\u06a9\u0646": 2512, "\u062e\u0631\u0627\u0646": 2513, "\u0630\u0648\u0627\u0644\u0641\u0642\u0627\u0631": 2514, "\u0628\u0628\u06cc\u0646\u062f": 2515, "\u0633\u0645\u0639": 2516, "\u0631\u0648\u06cc\u0627\u0646": 2517, "\u0631\u0648\u0634\u0646\u0627\u06cc\u06cc": 2518, "\u0622\u0634\u0646\u0627\u06cc\u06cc": 2519, "\u0632\u0627\u0646\u0648": 2520, "\u062f\u0631\u06cc\u0686\u0647": 2521, "\u0633\u0631\u0634\u062a": 2522, "\u0633\u0631\u06af\u0634\u062a\u0647": 2523, "\u0639\u0642\u0631\u0628": 2524, "\u062f\u0644\u0648": 2525, "\u0628\u0645\u06cc\u0631\u062f": 2526, "\u067e\u0633\u0646\u062f\u06cc\u062f\u0647": 2527, "\u0631\u0646\u062c\u0648\u0631": 2528, "\u0627\u06cc\u0633\u062a": 2529, "\u062a\u0627\u0645\u0644": 2530, "\u0642\u0627\u0639\u062f\u0647": 2531, "\u0639\u0644\u0648\u06cc": 2532, "\u0622\u0634\u0648\u0628": 2533, "\u06a9\u06cc\u0634": 2534, "\u062a\u0627\u0628\u0634": 2535, "\u0627\u0644\u0645\u0627\u0633": 2536, "\u0631\u0637\u0628": 2537, "\u06a9\u06cc\u0645\u06cc\u0627": 2538, "\u0641\u0631\u0648\u0634": 2539, "\u067e\u0631\u06af\u0627\u0631": 2540, "\u06a9\u0627\u0645\u0631\u0648\u0632": 2541, "\u0635\u0628\u0648\u0631\u06cc": 2542, "\u0628\u062e\u0648\u0631\u062f": 2543, "\u062e\u0641\u062a": 2544, "\u067e\u0627\u0631\u0633\u0627\u06cc\u06cc": 2545, "\u067e\u0627\u0634": 2546, "\u0642\u0648\u0645\u06cc": 2547, "\u0628\u0646\u0627\u062a": 2548, "\u0627\u062d\u062a\u0645\u0627\u0644": 2549, "\u062e\u0631\u0633\u0646\u062f\u06cc": 2550, "\u0628\u0631\u0627\u0646": 2551, "\u067e\u0647\u0644\u0648\u06cc": 2552, "\u0633\u062a\u0648\u0631": 2553, "\u06a9\u0634\u0646\u062f": 2554, "\u0631\u0646\u062c\u0647": 2555, "\u062f\u0631\u062f\u0645\u0646\u062f": 2556, "\u062e\u062a\u0645": 2557, "\u0628\u0634\u0646\u0648\u062f": 2558, "\u062c\u0645\u0634\u06cc\u062f": 2559, "\u0633\u0648\u0627\u0644": 2560, "\u062d\u0644": 2561, "\u063a\u0627\u06cc\u0628": 2562, "\u0628\u0646\u0627": 2563, "\u0628\u0631\u0627\u0628\u0631": 2564, "\u0645\u0646\u0642\u0627\u0631": 2565, "\u0634\u062c\u0631": 2566, "\u0646\u06af\u0631\u0645": 2567, "\u062e\u0631\u0633\u0646\u062f": 2568, "\u0645\u0635\u0637\u0641\u0627": 2569, "\u0641\u0635\u0644": 2570, "\u0646\u0627\u0646\u06cc": 2571, "\u0641\u0647\u0645": 2572, "\u0627\u0633\u0645": 2573, "\u0628\u0631\u06af\u06cc\u0631": 2574, "\u0627\u0631\u0645": 2575, "\u0633\u0644\u0637\u0627\u0646\u06cc": 2576, "\u0648\u0628\u0627\u0644": 2577, "\u067e\u0631\u0633\u062a\u06cc": 2578, "\u0645\u0648\u0646\u0633": 2579, "\u0627\u0646\u0627": 2580, "\u062e\u0627\u0642\u0627\u0646\u06cc\u0645": 2581, "\u0646\u0631\u0645": 2582, "\u0645\u0628\u0627\u062f\u0627": 2583, "\u0642\u06cc\u062f": 2584, "\u062a\u0627\u062b\u06cc\u0631": 2585, "\u0628\u0627\u0644\u06cc\u0646": 2586, "\u0646\u0642\u0635\u0627\u0646": 2587, "\u062d\u0642\u0647": 2588, "\u0645\u06a9\u0634": 2589, "\u0622\u0648\u062e": 2590, "\u0645\u0635\u062d\u0641": 2591, "\u0628\u06a9\u0634\u062f": 2592, "\u0631\u0648\u063a\u0646": 2593, "\u0639\u0637\u0627\u0631\u062f": 2594, "\u0627\u0644\u06cc": 2595, "\u062e\u0644\u0644": 2596, "\u0627\u0646\u0639\u0627\u0645": 2597, "\u0648\u0637\u0646": 2598, "\u0646\u0634\u0646\u0627\u0633\u062f": 2599, "\u062a\u0627\u06cc\u06cc\u062f": 2600, "\u06af\u0631\u0627\u0646\u06cc": 2601, "\u0632\u06a9\u0627\u062a": 2602, "\u062f\u0648\u0627\u0645": 2603, "\u062e\u0646\u06a9": 2604, "\u062f\u0645\u0627\u0631": 2605, "\u0635\u0631\u0627\u062d\u06cc": 2606, "\u062e\u0648\u0627\u062c\u06af\u0627\u0646": 2607, "\u0646\u06cc\u0627\u0641\u062a\u0645": 2608, "\u0645\u0634\u0627\u0637\u0647": 2609, "\u062e\u0648\u0627\u062c\u06af\u06cc": 2610, "\u062c\u0631\u0627\u062d\u062a": 2611, "\u0645\u0644\u062e": 2612, "\u0633\u0641\u0631\u0647": 2613, "\u067e\u0627\u062f\u0634\u0627\u0647\u0627\u0646": 2614, "\u06cc\u0627\u0631\u0627": 2615, "\u0635\u0648\u0645\u0639\u0647": 2616, "\u062a\u06a9": 2617, "\u0627\u062a": 2618, "\u0628\u0627\u0634\u0646\u062f": 2619, "\u0646\u0641\u0627\u0642": 2620, "\u0645\u0639\u062c\u0632": 2621, "\u062e\u0644\u0642\u062a": 2622, "\u0648\u0627\u0646\u06af\u0647": 2623, "\u0646\u06cc\u06a9\u0627\u0646": 2624, "\u0645\u06cc\u0633\u0631": 2625, "\u0646\u0638\u0627\u0645": 2626, "\u0628\u06cc\u0646\u0627": 2627, "\u0634\u0641\u06cc\u0639": 2628, "\u0641\u062a\u0627\u062f\u0647": 2629, "\u0628\u062f\u0631\u062f": 2630, "\u0644\u0627\u0645": 2631, "\u0628\u0631\u0627\u0646\u06cc": 2632, "\u062a\u0648\u0642\u06cc\u0639": 2633, "\u0645\u062c\u0631\u0648\u062d": 2634, "\u0628\u062e\u0648\u0631": 2635, "\u062a\u0627\u0632": 2636, "\u0647\u0645\u062a\u0634": 2637, "\u0634\u06cc\u0641\u062a\u0647": 2638, "\u0645\u0647\u062f": 2639, "\u0642\u0646\u062f": 2640, "\u0628\u062e": 2641, "\u062a\u0627\u0628\u062f": 2642, "\u0646\u0639\u06cc\u0645": 2643, "\u06a9\u0633\u0631\u06cc": 2644, "\u067e\u0631\u062f\u0627\u062e\u062a\u0647": 2645, "\u06af\u0648\u06cc\u0627\u0646": 2646, "\u0628\u062e\u0648\u0627\u0647": 2647, "\u062e\u0627\u06a9\u062f\u0627\u0646": 2648, "\u0622\u062b\u0627\u0631": 2649, "\u0628\u06cc\u0632\u0627\u0631": 2650, "\u0627\u0631\u0648\u0627\u062d": 2651, "\u0645\u0631\u06a9\u0632": 2652, "\u062f\u0627\u0648\u0631\u06cc": 2653, "\u0631\u0648\u0632\u0646": 2654, "\u0645\u0634\u062a": 2655, "\u0646\u06a9\u0631\u062f\u0647": 2656, "\u0645\u0646\u0634": 2657, "\u0648\u0631\u062f": 2658, "\u0627\u062b\u06cc\u0631": 2659, "\u0686\u0631\u0628": 2660, "\u067e\u0627\u062f\u0634\u0647": 2661, "\u063a\u0627\u0634\u06cc\u0647": 2662, "\u0639\u06cc\u0627\u0644": 2663, "\u0636\u0645\u0627\u0646": 2664, "\u0628\u0631\u0627\u0646\u06af\u06cc\u0632\u062f": 2665, "\u0634\u0639\u0631\u06cc": 2666, "\u0639\u0633\u0644": 2667, "\u0646\u0648\u062d\u0647": 2668, "\u0631\u0648\u0634\u0646\u06cc": 2669, "\u062d\u0644\u0648\u0627": 2670, "\u0634\u0627\u0647\u062f\u06cc": 2671, "\u0627\u062e\u0644\u0627\u0635": 2672, "\u0628\u062e\u0646\u062f\u06cc\u062f": 2673, "\u0648\u0647": 2674, "\u067e\u0627\u06a9\u0627\u0646": 2675, "\u062c\u0648\u0647\u0631\u06cc": 2676, "\u0631\u0647\u0628\u0631": 2677, "\u06a9\u0627\u0634\u06a9\u06cc": 2678, "\u0686\u0648\u0646\u06cc": 2679, "\u0633\u0631\u0627\u06cc\u06cc": 2680, "\u0628\u0628\u0646\u062f": 2681, "\u06a9\u062d\u0644": 2682, "\u0639\u0631\u0635\u0647": 2683, "\u0646\u0647\u0641\u062a": 2684, "\u0646\u0627\u06a9\u0633\u0627\u0646": 2685, "\u0639\u0631\u06cc\u0627\u0646": 2686, "\u0628\u0627\u0632\u0622\u0645\u062f": 2687, "\u0646\u062d\u0633": 2688, "\u0645\u0646\u06a9\u0631": 2689, "\u062a\u0646\u062a": 2690, "\u0628\u0627\u0631\u0634": 2691, "\u063a\u0631\u0642": 2692, "\u06af\u0648\u0632": 2693, "\u0622\u06cc\u062f\u0645": 2694, "\u062e\u0627\u06a9\u0634": 2695, "\u0644\u0634\u06a9\u0631\u06cc": 2696, "\u0644\u0646": 2697, "\u0622\u0648\u0631\u0645": 2698, "\u0628\u06af\u0634\u0627\u06cc": 2699, "\u0641\u0627\u0646\u06cc": 2700, "\u0628\u06af\u0631\u06cc\u0633\u062a\u06cc": 2701, "\u0632\u06cc\u062f": 2702, "\u0633\u0627\u0631": 2703, "\u0644\u0639\u0646\u062a": 2704, "\u0645\u0644": 2705, "\u062a\u0645\u0646\u0627\u06cc": 2706, "\u0647\u0645\u0627\u0646\u0627": 2707, "\u0631\u0646\u062f\u0627\u0646": 2708, "\u0646\u063a\u0632": 2709, "\u0631\u0647\u0634": 2710, "\u0633\u0647\u0645": 2711, "\u0698\u0627\u0644\u0647": 2712, "\u0622\u0648\u0631\u062f\u06cc": 2713, "\u0627\u0633\u062a\u0627\u062f\u0647": 2714, "\u06a9\u0698\u062f\u0645": 2715, "\u0633\u06cc\u0627\u0631\u0647": 2716, "\u0628\u0631\u062e\u06cc\u0632": 2717, "\u0646\u0627": 2718, "\u0628\u0646\u0645\u0648\u062f": 2719, "\u0631\u0641\u062a\u0627\u0631": 2720, "\u0628\u0645\u0631\u062f": 2721, "\u062e\u0648\u0628\u062a\u0631": 2722, "\u062a\u0631\u0627\u0632\u0648\u06cc": 2723, "\u06a9\u0644\u0627\u0645": 2724, "\u0645\u0646\u0634\u0648\u0631": 2725, "\u063a\u0631\u0628\u062a": 2726, "\u06a9\u0641\u0627\u06cc\u062a": 2727, "\u0633\u0644\u0645\u0627\u0646": 2728, "\u0628\u06af\u0634\u0627\u06cc\u062f": 2729, "\u0631\u0628\u0627\u0628": 2730, "\u0628\u0627\u062f\u0627\u0645": 2731, "\u0641\u0631\u062e": 2732, "\u0634\u0646\u0627\u0633\u06cc": 2733, "\u0628\u062f\u0631\u0648\u062f": 2734, "\u0646\u0627\u0644\u0627\u0646": 2735, "\u0639\u0638\u06cc\u0645": 2736, "\u0634\u0631\u06cc\u0641": 2737, "\u0646\u062f\u06cc\u062f\u06cc": 2738, "\u0627\u0628\u0646": 2739, "\u067e\u0627\u0631": 2740, "\u067e\u0631\u0647\u06cc\u0632": 2741, "\u0627\u062e\u0648\u0627\u0646": 2742, "\u06af\u0628\u0631": 2743, "\u0628\u062e\u062a\u06cc": 2744, "\u0645\u0639\u0630\u0648\u0631": 2745, "\u0641\u0631\u0648\u063a": 2746, "\u0633\u0631\u0627": 2747, "\u0645\u0644\u06a9\u06cc": 2748, "\u0622\u0630\u0631": 2749, "\u0641\u0631\u0627\u0648\u0627\u0646": 2750, "\u062e\u0637\u0627\u0633\u062a": 2751, "\u0633\u0648\u062e\u062a\u0646": 2752, "\u0646\u0627\u0644\u0645": 2753, "\u0633\u0648\u0631": 2754, "\u0633\u0646\u0627": 2755, "\u0628\u0647\u0631\u0647": 2756, "\u062e\u06cc\u0627\u0644\u062a": 2757, "\u0627\u0632\u0631\u0642": 2758, "\u062a\u0644\u062e\u06cc": 2759, "\u0627\u0644\u062a\u0641\u0627\u062a": 2760, "\u0644\u0642\u0628": 2761, "\u062c\u0645\u0627\u0644\u0634": 2762, "\u0641\u0627\u0644": 2763, "\u0647\u0641\u062a\u0627\u062f": 2764, "\u062a\u0639\u0627\u0644\u06cc": 2765, "\u0686\u0627\u06a9\u0631\u06cc": 2766, "\u0622\u0645\u0648\u062e\u062a": 2767, "\u062a\u0648\u0634\u0647": 2768, "\u0635\u0628\u0631\u0645": 2769, "\u0627\u062d\u0633\u0646\u062a": 2770, "\u0641\u0631\u0642\u062a": 2771, "\u0631\u0641\u0639\u062a": 2772, "\u0627\u06cc\u0686": 2773, "\u0639\u0644\u06cc\u06a9": 2774, "\u0634\u062a\u0627\u0628": 2775, "\u067e\u0627\u0631\u0633\u0627": 2776, "\u0646\u0627\u06af\u0647\u0627\u0646": 2777, "\u0646\u06af\u0646\u062c\u062f": 2778, "\u06cc\u0633\u0627\u0631": 2779, "\u0641\u0642\u06cc\u0631": 2780, "\u0634\u0648\u0631\u0647": 2781, "\u062d\u0633\u0627\u0645": 2782, "\u0648\u0631\u0642": 2783, "\u0639\u0646\u06a9\u0628\u0648\u062a": 2784, "\u0636\u0631\u0648\u0631\u062a": 2785, "\u0627\u0628\u0644\u0647\u06cc": 2786, "\u062d\u0645\u0644": 2787, "\u062c\u0627\u062f\u0648\u06cc": 2788, "\u0646\u06a9\u0634\u062f": 2789, "\u062a\u0646\u0647\u0627\u06cc\u06cc": 2790, "\u0646\u062f\u0647\u06cc": 2791, "\u0686\u06a9\u0646\u062f": 2792, "\u0631\u06cc\u0632\u06cc": 2793, "\u0622\u0633\u0645\u0627\u0646\u06cc": 2794, "\u0628\u0645\u0627\u0646\u06cc": 2795, "\u0628\u0648\u062f\u0633\u062a": 2796, "\u0645\u0633\u062a\u0645": 2797, "\u062f\u0631\u0648\u06cc\u0634\u06cc": 2798, "\u062e\u0633\u0631\u0648\u0627\u0646": 2799, "\u0627\u0628\u0644\u0642": 2800, "\u062e\u0631\u0627\u0628\u06cc": 2801, "\u0627\u0648\u06cc": 2802, "\u0627\u0631\u0632\u062f": 2803, "\u0641\u0631\u062e\u0646\u062f\u0647": 2804, "\u0633\u0648\u0627\u0631\u06cc": 2805, "\u062e\u0648\u06cc\u0634\u06cc": 2806, "\u0622\u0646\u06af\u0627\u0647": 2807, "\u0648\u0642\u0641": 2808, "\u062e\u0644\u0627\u06cc\u0642": 2809, "\u0628\u06cc\u0636\u0647": 2810, "\u0628\u0631\u0622\u0648\u0631\u062f\u0647": 2811, "\u062d\u0628\u0634": 2812, "\u0628\u0627\u0631\u06cc\u06a9": 2813, "\u062e\u062f\u0646\u06af": 2814, "\u0622\u0632\u0627\u062f\u0647": 2815, "\u062a\u0648\u062f\u0647": 2816, "\u06af\u0632\u0646\u062f": 2817, "\u0637\u0627\u0631\u0645": 2818, "\u062a\u0645\u0646\u0627": 2819, "\u0646\u0642\u0628": 2820, "\u0633\u0627\u062f\u0647": 2821, "\u0627\u0641\u06a9\u0646": 2822, "\u0634\u0646\u0648\u062f": 2823, "\u0639\u062f\u0646": 2824, "\u0627\u0646\u062f\u06a9\u06cc": 2825, "\u0639\u062b\u0645\u0627\u0646": 2826, "\u06a9\u0631\u06a9\u0633": 2827, "\u0633\u0627\u0642\u06cc\u0627": 2828, "\u0637\u0634\u062a": 2829, "\u0644\u0647": 2830, "\u062e\u0648\u06a9": 2831, "\u0628\u0644\u0646\u062f\u06cc": 2832, "\u062e\u0647": 2833, "\u0631\u0648\u0634": 2834, "\u0646\u0647\u0627\u06cc\u062a": 2835, "\u062f\u0644\u0627": 2836, "\u0633\u0627\u0645\u0631\u06cc": 2837, "\u0628\u0631\u06a9\u0634": 2838, "\u0645\u0647\u0631\u062a": 2839, "\u0639\u0642\u0648\u0628\u062a": 2840, "\u0628\u062e\u0648\u0627\u0647\u062f": 2841, "\u06a9\u0627\u0641": 2842, "\u0627\u0641\u0632\u0627\u06cc": 2843, "\u0647\u0645\u0686\u0646\u06cc\u0646": 2844, "\u0628\u062e\u0648\u0627\u0647\u06cc": 2845, "\u0645\u0639\u06cc\u0646": 2846, "\u067e\u06cc\u063a\u0627\u0645": 2847, "\u0632\u0628\u0627\u0646\u0645": 2848, "\u0628\u0633\u062a\u0646\u062f": 2849, "\u0645\u0641\u0644\u0633": 2850, "\u067e\u0627\u06a9\u06cc": 2851, "\u0644\u062d\u062f": 2852, "\u062e\u0627\u0631\u06cc": 2853, "\u06a9\u0632\u0648": 2854, "\u062c\u0639\u062f": 2855, "\u0631\u0628\u0648\u062f": 2856, "\u0628\u0633\u062a\u0627\u0646\u062f": 2857, "\u0645\u062d\u06a9": 2858, "\u0622\u0646\u0627\u0646": 2859, "\u0627\u06cc\u0646\u0627\u0646": 2860, "\u0645\u06af\u0630\u0627\u0631": 2861, "\u0627\u06cc\u0631\u0627": 2862, "\u062e\u0648\u0627\u0633\u062a\u06cc": 2863, "\u0646\u062f\u0647\u0645": 2864, "\u0628\u0627\u0631\u0645": 2865, "\u0641\u0631\u0636": 2866, "\u0628\u0632\u0646\u062f": 2867, "\u067e\u06cc\u0631\u0627\u0647\u0646": 2868, "\u0646\u0634\u0648\u06cc": 2869, "\u0633\u0631\u06a9\u0647": 2870, "\u0631\u0627\u06cc\u06cc": 2871, "\u0635\u0641\u0647": 2872, "\u0628\u062d\u0631\u06cc": 2873, "\u062f\u0648\u0644\u062a\u062a": 2874, "\u06a9\u0627\u0631\u0634": 2875, "\u0646\u06a9\u0631\u062f\u0645": 2876, "\u0646\u0627\u0647\u06cc\u062f": 2877, "\u06a9\u06cc\u062e\u0633\u0631\u0648": 2878, "\u0646\u06cc\u06a9\u0628\u062e\u062a": 2879, "\u0647\u0648\u06cc": 2880, "\u0628\u062f\u0627\u062f": 2881, "\u0627\u06cc\u0646\u06a9\u0647": 2882, "\u0628\u0646\u06af\u0631\u06cc": 2883, "\u0646\u0647\u0627\u062f\u06cc": 2884, "\u06af\u0630\u0627\u0634\u062a": 2885, "\u0632\u0628\u0627\u0646\u0634": 2886, "\u0646\u0628\u0627\u062a": 2887, "\u0633\u0631\u0646\u06af\u0648\u0646": 2888, "\u0645\u062d\u062a\u0627\u062c": 2889, "\u0634\u0647\u0627\u0628": 2890, "\u0627\u062f\u0647\u0645": 2891, "\u062f\u0627\u0648\u062f": 2892, "\u0635\u062f\u0627": 2893, "\u0634\u0627\u06af\u0631\u062f": 2894, "\u0644\u0627\u06cc\u0642": 2895, "\u062e\u0648\u0646\u0645": 2896, "\u0627\u06cc\u0627": 2897, "\u0622\u0634\u06a9\u0627\u0631\u0627": 2898, "\u0645\u0627\u06cc\u06cc\u0645": 2899, "\u0642\u0645\u0631\u06cc": 2900, "\u0627\u0644\u063a\u06cc\u0627\u062b": 2901, "\u0648\u0622\u0646\u0686\u0647": 2902, "\u0646\u0639\u062a": 2903, "\u067e\u0631\u0646\u06cc\u0627\u0646": 2904, "\u0647\u0645\u0646\u0634\u06cc\u0646": 2905, "\u0639\u062a\u0627\u0628": 2906, "\u0633\u0631\u0627\u0633\u0631": 2907, "\u0628\u062a\u06cc": 2908, "\u0686\u0633\u062a": 2909, "\u0646\u0645\u0648\u062f\u06cc": 2910, "\u063a\u06cc\u0628\u062a": 2911, "\u0641\u0632\u0627\u06cc": 2912, "\u0622\u0646\u06af\u0647\u06cc": 2913, "\u0645\u0627\u0646\u062f\u0645": 2914, "\u06cc\u0648\u0645": 2915, "\u0634\u06a9\u0631\u06cc": 2916, "\u0628\u0627\u0632\u0645": 2917, "\u067e\u0631\u0686\u0645": 2918, "\u0627\u0639\u062a\u0642\u0627\u062f": 2919, "\u06af\u0630\u0631\u06cc": 2920, "\u062e\u0648\u0627\u0635": 2921, "\u06a9\u0627\u0631\u0647\u0627": 2922, "\u0646\u0637\u0639": 2923, "\u062e\u0648\u0627\u0633\u062a\u0645": 2924, "\u062e\u0631\u0627\u062c": 2925, "\u0622\u0644\u062a": 2926, "\u067e\u0631\u06cc\u0634\u0627\u0646\u06cc": 2927, "\u0646\u062b\u0631": 2928, "\u06a9\u0627\u0647\u0644": 2929, "\u06a9\u0627\u0641\u0631\u06cc": 2930, "\u0628\u0644\u0628\u0644\u0627\u0646": 2931, "\u0642\u0646\u062f\u06cc\u0644": 2932, "\u0622\u0628\u0634": 2933, "\u062f\u0645\u0627\u062f\u0645": 2934, "\u0646\u062f\u0627\u0646\u0646\u062f": 2935, "\u0634\u0627\u062f\u0645\u0627\u0646": 2936, "\u0644\u0648": 2937, "\u0646\u0641\u0639": 2938, "\u06a9\u0633\u0627\u0646\u06cc": 2939, "\u0627\u0642\u0631\u0627\u0631": 2940, "\u0686\u0631\u0627\u063a\u06cc": 2941, "\u06af\u062f\u0627\u06cc\u0627\u0646": 2942, "\u0698\u0627\u0698": 2943, "\u0639\u0627\u0645\u0644": 2944, "\u062f\u0648\u062a\u0627": 2945, "\u0633\u0648\u06af\u0646\u062f": 2946, "\u062d\u0645\u0644\u0647": 2947, "\u0641\u0631\u0647\u0627\u062f": 2948, "\u0627\u0639\u062f\u0627": 2949, "\u062c\u0648\u06cc\u0627\u0646": 2950, "\u0645\u062d\u0631\u0648\u0645": 2951, "\u0627\u0641\u063a\u0627\u0646": 2952, "\u062f\u0648\u0644\u062a\u0634": 2953, "\u0647\u0633\u062a\u0646\u062f": 2954, "\u06cc\u0632\u06cc\u062f": 2955, "\u0628\u0633\u062a\u0631": 2956, "\u0633\u0644\u0627\u062d": 2957, "\u0641\u0631\u0648\u0634\u062f": 2958, "\u062f\u0644\u0633\u062a": 2959, "\u0646\u0632\u0644": 2960, "\u06a9\u0644\u06cc": 2961, "\u0646\u063a\u0645\u0647": 2962, "\u0646\u06cc\u06a9\u0648\u0627\u0646": 2963, "\u0622\u062e\u0648\u0631": 2964, "\u067e\u0630\u06cc\u0631\u062f": 2965, "\u0645\u0627\u0646\u0627": 2966, "\u062d\u062f\u06cc\u062b\u06cc": 2967, "\u0628\u0627\u0632\u0648": 2968, "\u062e\u0631\u06cc\u062f": 2969, "\u063a\u0648\u0644": 2970, "\u0647\u062c\u0631\u062a": 2971, "\u0642\u062f\u0633": 2972, "\u0647\u0645\u062a\u06cc": 2973, "\u0634\u06cc\u0648\u0647": 2974, "\u062a\u0639\u0644\u06cc\u0645": 2975, "\u063a\u0644\u0627\u0645\u06cc": 2976, "\u06cc\u062d\u06cc\u06cc": 2977, "\u0647\u0631\u06cc\u06a9\u06cc": 2978, "\u0646\u0627\u0645\u0632\u062f": 2979, "\u0627\u0646\u062f\u0627\u0632": 2980, "\u067e\u0634\u06cc\u0645\u0627\u0646": 2981, "\u0622\u0633\u06cc\u0627": 2982, "\u0628\u06af\u0631\u06cc\u0632\u062f": 2983, "\u0646\u0634\u0627\u0646\u0647": 2984, "\u06cc\u06af\u0627\u0646\u0647": 2985, "\u0632\u0627\u06cc": 2986, "\u0639\u0644\u0648\u0645": 2987, "\u0628\u06af\u0630\u0627\u0631\u062f": 2988, "\u0635\u0628\u0648\u062d\u06cc": 2989, "\u067e\u06cc\u06a9": 2990, "\u062a\u0648\u0627\u06cc\u0645": 2991, "\u0645\u0648\u0627\u0641\u0642": 2992, "\u062f\u0627\u0633\u062a\u0627\u0646": 2993, "\u0622\u0632\u0627\u062f\u06cc": 2994, "\u0646\u0628\u0648\u062f\u0647": 2995, "\u0627\u0641\u062a\u0627\u0628": 2996, "\u062c\u0633\u062a\u0647": 2997, "\u0641\u0631\u0632\u0627\u0646\u0647": 2998, "\u0648\u06cc\u062d\u06a9": 2999, "\u0642\u0627\u0644\u0628": 3000, "\u067e\u0627\u06cc\u0645": 3001, "\u0639\u0645\u0631\u0634": 3002, "\u0645\u0639\u0644\u0645": 3003, "\u0634\u0627\u0639\u0631\u0627\u0646": 3004, "\u062b\u0628\u0627\u062a": 3005, "\u0645\u0646\u0648\u0631": 3006, "\u0627\u0634\u0627\u0631\u062a": 3007, "\u062d\u0648\u062a": 3008, "\u0628\u0633\u0645": 3009, "\u0622\u0646\u062a": 3010, "\u0645\u062f\u0647\u0648\u0634": 3011, "\u06a9\u062c\u0627\u06cc\u06cc": 3012, "\u067e\u0644\u06cc\u062f": 3013, "\u0639\u0647\u062f\u06cc": 3014, "\u062e\u062f\u0627\u0648\u0646\u062f\u06cc": 3015, "\u0648\u0627\u0644\u0627": 3016, "\u067e\u0631\u0648\u0631\u06cc": 3017, "\u062c\u0639\u0641\u0631": 3018, "\u0686\u06cc\u0646\u06cc": 3019, "\u062e\u0631\u062f\u06cc": 3020, "\u06a9\u0631\u0634\u0645\u0647": 3021, "\u0642\u06cc\u0644": 3022, "\u0639\u0628\u0627\u0631\u062a": 3023, "\u062c\u0645\u0644\u06af\u06cc": 3024, "\u0645\u0645\u0627\u0644\u06a9": 3025, "\u0631\u0648\u0633": 3026, "\u062f\u0645\u062f": 3027, "\u062f\u0644\u0628\u0631\u0627\u0646": 3028, "\u062f\u06cc\u062f\u0646\u062f": 3029, "\u0633\u0627\u0644\u0647\u0627": 3030, "\u0642\u06cc\u0635\u0631": 3031, "\u0645\u0647\u06cc\u0646": 3032, "\u0646\u0642\u0635": 3033, "\u0648\u0627\u0644\u0644\u0647": 3034, "\u062e\u062f\u0627\u06cc\u06af\u0627\u0646": 3035, "\u0628\u0634\u0646\u0648\u06cc": 3036, "\u067e\u06cc\u0634\u0645": 3037, "\u062c\u0627\u0646\u0633\u062a": 3038, "\u0645\u0633\u06cc\u062d\u0627": 3039, "\u06a9\u062f\u062e\u062f\u0627\u06cc": 3040, "\u0639\u0631\u0642": 3041, "\u062d\u0627\u062f\u062b\u0647": 3042, "\u0647\u0648\u0627\u06cc\u06cc": 3043, "\u0628\u0633\u062a\u0646": 3044, "\u0642\u0639\u0631": 3045, "\u062d\u06cc\u0627": 3046, "\u0627\u0646\u062f\u0627\u062e\u062a\u0647": 3047, "\u063a\u0631\u06cc\u0628\u06cc": 3048, "\u062e\u0627\u062f\u0645": 3049, "\u0627\u0646\u062f\u06cc\u0634": 3050, "\u062a\u0631\u06a9\u06cc\u0628": 3051, "\u0622\u0645\u062f\u0634": 3052, "\u0628\u062a\u0631\u0633": 3053, "\u0633\u0632\u0627": 3054, "\u067e\u0631\u0648\u0627\u06cc": 3055, "\u0628\u06cc\u0634\u0647": 3056, "\u062f\u0647\u0642\u0627\u0646": 3057, "\u0647\u0645\u062f\u0645": 3058, "\u0644\u06cc\u0644": 3059, "\u062c\u063a\u062f": 3060, "\u0633\u0642\u0641": 3061, "\u062e\u062c\u0627\u0644\u062a": 3062, "\u0628\u06af\u0641\u062a\u0627": 3063, "\u06a9\u0648\u062f\u06a9\u0627\u0646": 3064, "\u06a9\u0631\u0633\u06cc": 3065, "\u0635\u06cc\u0642\u0644": 3066, "\u0628\u062e\u0648\u0627\u0646\u062f": 3067, "\u0635\u0646\u0639\u062a": 3068, "\u0633\u0632\u0627\u0648\u0627\u0631": 3069, "\u063a\u0632\u0644": 3070, "\u0627\u0648\u0641\u062a\u062f": 3071, "\u0622\u0628\u0644\u0647": 3072, "\u0633\u0631\u0648\u0631\u06cc": 3073, "\u06a9\u0627\u0646\u062c\u0627": 3074, "\u0645\u06a9\u062a\u0628": 3075, "\u06af\u06cc\u0633\u0648\u06cc": 3076, "\u0645\u0639\u0631\u0648\u0641": 3077, "\u0636\u062d\u0627\u06a9": 3078, "\u0634\u0627\u0647\u062f\u0627\u0646": 3079, "\u0646\u06cc\u0646\u062f\u06cc\u0634\u062f": 3080, "\u0627\u0628\u0631\u0627\u0647\u06cc\u0645": 3081, "\u0641\u0631\u0639": 3082, "\u06a9\u0648\u0633\u062a": 3083, "\u062c\u0648\u0627\u0646\u0627\u0646": 3084, "\u0628\u0627\u062f\u0628\u0627\u0646": 3085, "\u0628\u0637": 3086, "\u0634\u06af\u0641\u062a": 3087, "\u0646\u0627\u06a9\u0631\u062f\u0647": 3088, "\u062c\u0633\u062a\u0645": 3089, "\u0642\u0631\u0628": 3090, "\u06af\u0631\u0648\u0647\u06cc": 3091, "\u0634\u0646\u0627\u062e\u062a": 3092, "\u062f\u0631\u0628\u0627\u0646": 3093, "\u0628\u062a\u0648\u0627\u0646": 3094, "\u0622\u0632\u0627\u062f\u06af\u0627\u0646": 3095, "\u062d\u0631\u06cc\u0641\u0627\u0646": 3096, "\u062d\u0631\u06cc\u0631": 3097, "\u0645\u062e\u0627\u0644\u0641": 3098, "\u0645\u062f\u0627\u0646": 3099, "\u0645\u0635\u0631\u06cc": 3100, "\u0632\u062f\u0646\u062f": 3101, "\u062f\u0627\u0646\u0633\u062a": 3102, "\u0631\u062a\u0628\u062a": 3103, "\u067e\u06cc\u0644\u0647": 3104, "\u062a\u0627\u062a": 3105, "\u0628\u0631\u0633\u062a": 3106, "\u06cc\u0648\u0633\u0641\u06cc": 3107, "\u062f\u0631\u06cc\u062f": 3108, "\u0642\u0627\u062a\u0644": 3109, "\u0631\u0648\u0632\u0645": 3110, "\u0646\u06af\u0627\u0631\u06cc\u0646": 3111, "\u0637\u0648\u0627\u0641": 3112, "\u0633\u0644\u0628": 3113, "\u0633\u062a\u0627\u0646\u062f": 3114, "\u0628\u0627\u0646\u0648\u06cc": 3115, "\u0645\u0628\u0646\u062f": 3116, "\u0628\u0631\u06cc\u0632": 3117, "\u0631\u0633\u062a\u06cc": 3118, "\u0633\u062e\u0646\u0647\u0627\u06cc": 3119, "\u0645\u0647\u0631\u0628\u0627\u0646\u06cc": 3120, "\u06a9\u0627\u062a\u0634": 3121, "\u0646\u06cc\u0627\u06cc\u06cc": 3122, "\u0644\u06af\u0627\u0645": 3123, "\u0637\u0627\u06cc\u0641\u0647": 3124, "\u06af\u0631\u06cc\u0633\u062a": 3125, "\u0644\u0631\u0632\u0627\u0646": 3126, "\u0622\u0634\u0641\u062a\u0647": 3127, "\u0628\u0631\u06af\u06cc": 3128, "\u067e\u06cc\u0631\u0627\u06cc\u0647": 3129, "\u0634\u0647\u06cc": 3130, "\u0633\u0627\u0639\u062f": 3131, "\u0628\u0648\u062a\u0647": 3132, "\u0633\u0648\u0632\u062f": 3133, "\u0637\u0639\u0627\u0645": 3134, "\u062e\u0634\u0646\u0648\u062f": 3135, "\u0628\u0631\u0627\u0647\u06cc\u0645": 3136, "\u0641\u062a\u0648\u06cc": 3137, "\u062a\u0627\u0631\u06cc": 3138, "\u062f\u0644\u0633\u062a\u0627\u0646": 3139, "\u06a9\u0632\u06cc\u0646": 3140, "\u0646\u06cc\u0631\u0632\u062f": 3141, "\u06a9\u0627\u0628": 3142, "\u0627\u0641\u0631\u0648\u0632": 3143, "\u0633\u06cc\u0641": 3144, "\u062a\u06cc\u0631\u06af\u06cc": 3145, "\u0648\u0627\u0646\u062f\u0631": 3146, "\u0639\u0642\u0644\u0645": 3147, "\u0628\u062e\u062a\u0645": 3148, "\u0627\u062d\u0631\u0627\u0631": 3149, "\u0628\u06a9\u0646\u062f": 3150, "\u0636\u0631\u0628": 3151, "\u0645\u0639\u062f\u0646": 3152, "\u0627\u062e\u0636\u0631": 3153, "\u0628\u06af\u0634\u0627\u06cc\u06cc": 3154, "\u067e\u0631\u0633": 3155, "\u062a\u0631\u0627\u0632\u0648": 3156, "\u062a\u0628\u0627\u0647": 3157, "\u067e\u0633\u062a\u06cc": 3158, "\u0627\u0648\u06cc\u0645": 3159, "\u062a\u0631\u0646\u062c": 3160, "\u0633\u0644\u06cc\u0645": 3161, "\u0645\u0631\u0633\u0644": 3162, "\u062d\u0648\u0636": 3163, "\u0648\u062c\u0648\u062f\u062a": 3164, "\u062e\u0632\u0627\u0646\u0647": 3165, "\u0622\u0641\u0631\u06cc\u062f\u0647": 3166, "\u0645\u0633\u0645\u0627\u0631": 3167, "\u062d\u0631\u0648\u0641": 3168, "\u0628\u0634\u06a9\u0646": 3169, "\u0647\u0645\u0631\u0627\u0647": 3170, "\u0635\u0639\u0628": 3171, "\u0642\u0644\u0632\u0645": 3172, "\u06af\u0631\u0645\u06cc": 3173, "\u0644\u0627\u0634\u0647": 3174, "\u062d\u0633\u06cc\u0646": 3175, "\u062f\u0633\u062a\u0648\u0631": 3176, "\u062c\u0631\u0633": 3177, "\u0646\u0642\u0627\u0634": 3178, "\u0622\u0648\u06cc\u0632\u062f": 3179, "\u0634\u0631\u0631": 3180, "\u067e\u06cc\u0627\u0632": 3181, "\u062c\u0627\u062f\u0648": 3182, "\u062f\u06cc\u062f\u06af\u0627\u0646": 3183, "\u06cc\u06a9\u06cc\u0633\u062a": 3184, "\u0635\u0628\u0627\u062d": 3185, "\u0622\u06cc\u062f\u0634": 3186, "\u06a9\u0628\u0631\u06cc\u0627": 3187, "\u0627\u0644\u0627\u0647\u06cc": 3188, "\u06af\u0631\u062f\u0627\u0646\u062f": 3189, "\u0633\u062e\u0646\u0645": 3190, "\u0628\u0647\u0645\u0646": 3191, "\u0635\u0631\u0635\u0631": 3192, "\u0645\u062c\u062f": 3193, "\u0646\u06cc\u0646\u062f\u06cc\u0634\u0645": 3194, "\u062a\u0639\u0648\u06cc\u0630": 3195, "\u06a9\u0639\u0628": 3196, "\u062d\u0648\u0627\u0633": 3197, "\u062a\u0646\u06af\u0646\u0627\u06cc": 3198, "\u06a9\u0648\u0641\u062a": 3199, "\u062e\u0627\u0637\u0631\u0634": 3200, "\u06a9\u0648\u0631\u0647": 3201, "\u062a\u0648\u0627\u0636\u0639": 3202, "\u0622\u0632\u0631\u062f\u0647": 3203, "\u062f\u0631\u0645\u0627\u0646\u062f\u0647": 3204, "\u0631\u0648\u062d\u0627\u0646\u06cc\u0627\u0646": 3205, "\u0645\u0639\u062f\u0647": 3206, "\u062f\u0648\u0631\u0633\u062a": 3207, "\u0634\u0647\u0646\u0634\u0647": 3208, "\u0627\u0646\u0641\u0627\u0633": 3209, "\u06a9\u0634\u06cc\u062f\u0646": 3210, "\u062d\u06cc": 3211, "\u0628\u0628\u0646\u062f\u062f": 3212, "\u0622\u0646\u06a9\u0648": 3213, "\u0639\u0645\u0627\u0631\u062a": 3214, "\u062e\u0648\u0627\u0628\u06cc": 3215, "\u0645\u062e\u0648\u0627\u0646": 3216, "\u062e\u0627\u0635\u06af\u0627\u0646": 3217, "\u0628\u0627\u0645\u062f\u0627\u062f\u0627\u0646": 3218, "\u0628\u0634\u062f": 3219, "\u0628\u062f\u06cc\u0639": 3220, "\u062c\u06af\u0631\u0645": 3221, "\u06a9\u0648\u06a9\u0628": 3222, "\u0645\u0648\u0645\u0646": 3223, "\u0631\u0647\u0646\u0645\u0627\u06cc": 3224, "\u0627\u0647\u0631\u0645\u0646": 3225, "\u062e\u0648\u0631\u062f\u0645": 3226, "\u0627\u06cc\u0645\u0646\u06cc": 3227, "\u0628\u0647\u0627\u0631\u06cc": 3228, "\u0639\u0642\u06cc\u0645": 3229, "\u0646\u0642\u0631\u0647": 3230, "\u0639\u0645\u062f\u0627": 3231, "\u0627\u0628\u062c\u062f": 3232, "\u0686\u0634\u0645\u0627\u0646": 3233, "\u0634\u062f\u06cc\u0645": 3234, "\u0628\u0631\u0627\u0642": 3235, "\u0639\u0646\u0635\u0631": 3236, "\u0622\u0645\u0648\u0632": 3237, "\u0627\u062f\u0631\u06cc\u0633": 3238, "\u0647\u0645\u0648\u0627\u0631\u0647": 3239, "\u062a\u0631\u0633\u062a": 3240, "\u06a9\u0641\u0647": 3241, "\u0641\u0631\u0648\u0632": 3242, "\u0645\u0632\u0648\u0631": 3243, "\u0645\u0627\u0646\u0645": 3244, "\u0627\u062e\u0644\u0627\u0642": 3245, "\u06a9\u0627\u0631\u06af\u0627\u0647": 3246, "\u0627\u0646\u06af\u06cc\u0632": 3247, "\u062d\u0632\u06cc\u0646": 3248, "\u062d\u0634\u0645": 3249, "\u062a\u0646\u06af\u06cc": 3250, "\u06af\u0631\u062f\u0646\u0627\u0646": 3251, "\u0633\u0627\u0632\u0646\u062f": 3252, "\u0628\u06af\u0648\u06cc\u06cc": 3253, "\u0639\u0631\u0648\u0633\u0627\u0646": 3254, "\u062c\u0628\u0631\u06cc\u0644": 3255, "\u0634\u06a9\u06cc\u0628\u0627\u06cc\u06cc": 3256, "\u0639\u0637\u0627\u06cc": 3257, "\u0645\u0627\u06cc\u06cc": 3258, "\u0628\u06cc\u0627\u0628\u06cc": 3259, "\u062f\u0628\u0633\u062a\u0627\u0646": 3260, "\u062e\u0648\u06cc\u0634\u0645": 3261, "\u0641\u0648\u0642": 3262, "\u0639\u0635\u06cc\u0627\u0646": 3263, "\u0622\u0631\u0627\u06cc": 3264, "\u062e\u0646\u062f\u062f": 3265, "\u0632\u0646\u06af\u0627\u0631": 3266, "\u0631\u0627\u0645": 3267, "\u062d\u0632\u0645": 3268, "\u0645\u0633\u0627\u0641\u0631": 3269, "\u062e\u0637\u0628\u0647": 3270, "\u0634\u06a9\u0633\u062a\u0645": 3271, "\u0647\u0628\u0627": 3272, "\u062f\u06af\u0631\u0627\u0646": 3273, "\u0632\u06cc\u0627\u062f": 3274, "\u0646\u0639\u0645\u0627\u0646": 3275, "\u067e\u06cc\u0634\u0648\u0627\u06cc": 3276, "\u0634\u06cc\u062f\u0627": 3277, "\u0645\u0647\u0631\u06cc": 3278, "\u0645\u062d\u0636": 3279, "\u0628\u0631\u06af\u0634\u062a\u0647": 3280, "\u0646\u0648\u0627\u06cc\u06cc": 3281, "\u0633\u0627\u062d\u0631\u06cc": 3282, "\u0628\u0647\u0633\u062a": 3283, "\u0628\u0631\u06cc\u062e\u062a": 3284, "\u0631\u0642\u0639\u0647": 3285, "\u062a\u06cc\u0631\u06cc": 3286, "\u0644\u0631\u0632\u0647": 3287, "\u0628\u062f\u0639\u062a": 3288, "\u062e\u0648\u0627\u0646\u0645\u062a": 3289, "\u062c\u0632\u0627\u06cc": 3290, "\u06af\u0648\u06cc\u0645\u062a": 3291, "\u0631\u0645\u06cc\u062f\u0647": 3292, "\u0646\u0634\u0633\u062a\u0646": 3293, "\u06a9\u0646\u0639\u0627\u0646": 3294, "\u0622\u063a\u0627\u0632": 3295, "\u062a\u0645\u0627\u0634\u0627\u06cc": 3296, "\u062e\u0627\u0631\u0627": 3297, "\u0628\u0646\u0634\u06cc\u0646\u06cc": 3298, "\u0628\u0646\u062f\u0645": 3299, "\u062f\u0627\u0631\u0627": 3300, "\u0628\u0633\u0631": 3301, "\u062a\u0627\u0641\u062a\u0647": 3302, "\u0631\u0647\u0627\u06cc\u06cc": 3303, "\u0628\u06af\u0630\u0627\u0634\u062a": 3304, "\u0637\u0628\u0642": 3305, "\u06a9\u0627\u0645\u0631\u0627\u0646": 3306, "\u06a9\u0648\u0631\u0627": 3307, "\u062e\u0648\u0627\u0647\u0646\u062f": 3308, "\u0628\u0636\u0627\u0639\u062a": 3309, "\u0639\u0628\u0631\u062a": 3310, "\u0628\u06cc\u062c\u0627\u062f\u0647": 3311, "\u062d\u0633\u0627\u0646": 3312, "\u062e\u0645\u0631": 3313, "\u0639\u0642\u06cc\u0642": 3314, "\u0634\u0634\u062f\u0631": 3315, "\u0633\u06cc\u0631\u0627\u0628": 3316, "\u0646\u06cc\u0627\u0631\u0645": 3317, "\u0628\u06af\u0631\u06cc\u062f": 3318, "\u062c\u0628\u06cc\u0646": 3319, "\u0632\u0634\u062a\u06cc": 3320, "\u0635\u0641\u0648\u062a": 3321, "\u0645\u0639\u0631\u0627\u062c": 3322, "\u0628\u0647\u06cc\u0646": 3323, "\u062a\u0633\u06a9\u06cc\u0646": 3324, "\u0627\u0635\u0644\u06cc": 3325, "\u0641\u0633\u0631\u062f\u0647": 3326, "\u0646\u0634\u06cc\u0645\u0646": 3327, "\u0642\u062a\u0644": 3328, "\u0646\u062f\u06cc\u0645": 3329, "\u0645\u0646\u0627\u062c\u0627\u062a": 3330, "\u063a\u0646\u06cc\u0645\u062a": 3331, "\u0646\u0646\u0645\u0627\u06cc\u062f": 3332, "\u0633\u062e\u0627\u06cc": 3333, "\u0622\u0641\u0631\u06cc\u062f": 3334, "\u062a\u0631\u062c\u0645\u0627\u0646": 3335, "\u0641\u0631\u0632\u06cc\u0646": 3336, "\u062f\u0631\u0639": 3337, "\u0645\u0631\u062f\u0627\u0631": 3338, "\u0631\u0628\u0627\u0646\u06cc": 3339, "\u0633\u0644\u0627\u0637\u06cc\u0646": 3340, "\u062d\u0642\u06cc\u0631": 3341, "\u0642\u0633\u0645\u062a": 3342, "\u06a9\u0627\u0646\u0686\u0647": 3343, "\u067e\u0631\u0648\u0631\u0634": 3344, "\u06cc\u06a9\u062a\u0627": 3345, "\u0641\u0627\u0645": 3346, "\u0648\u0627\u062c\u0628": 3347, "\u0631\u0641\u062a\u0646\u062f": 3348, "\u0628\u0631\u06cc\u0645": 3349, "\u0628\u0646\u0647\u0627\u062f": 3350, "\u062e\u062c\u0644\u062a": 3351, "\u062e\u0627\u06cc\u0647": 3352, "\u062f\u0627\u062f\u0633\u062a": 3353, "\u0633\u0648\u0632\u06cc": 3354, "\u0634\u06cc\u0646": 3355, "\u0646\u0633\u0631\u06cc\u0646": 3356, "\u062d\u0628\u0630\u0627": 3357, "\u0622\u06af\u0647": 3358, "\u062a\u0646\u062f\u06cc": 3359, "\u0636\u06cc\u0627": 3360, "\u0637\u0646\u0627\u0628": 3361, "\u0645\u0631\u063a\u0632\u0627\u0631": 3362, "\u0631\u0627\u062f": 3363, "\u0648\u062d\u0634\u062a": 3364, "\u0633\u062d\u0631\u06cc": 3365, "\u0644\u0628\u0627\u0646": 3366, "\u06a9\u0634\u06cc\u062f\u06cc": 3367, "\u0639\u0642\u0627\u0628": 3368, "\u0628\u0631\u0627\u062a": 3369, "\u067e\u06cc\u0631\u0627\u0645\u0646": 3370, "\u0641\u0627\u0634": 3371, "\u0644\u0628\u06cc\u06a9": 3372, "\u0633\u0627\u06cc\u0644": 3373, "\u0628\u0631\u0627\u0646\u062f\u0627\u062e\u062a": 3374, "\u063a\u0631\u06cc\u0642": 3375, "\u0646\u0634\u0646\u06cc\u062f\u0645": 3376, "\u062f\u0648\u0632": 3377, "\u0634\u0631\u06a9": 3378, "\u0645\u062f\u062a": 3379, "\u0639\u0627\u0628\u062f": 3380, "\u0646\u06af\u06cc\u0631\u0645": 3381, "\u0641\u0631\u062c": 3382, "\u062a\u0631\u0647": 3383, "\u0639\u0631\u0648\u0633\u06cc": 3384, "\u06af\u0631\u0641\u062a\u0646": 3385, "\u0633\u0647\u06cc\u0644": 3386, "\u0648\u0635\u0627\u0644\u062a": 3387, "\u0645\u06cc\u0631\u062f": 3388, "\u062d\u0627\u0644\u0645": 3389, "\u0648\u062d\u06cc": 3390, "\u0646\u0634\u06cc\u0628": 3391, "\u0628\u0647\u0627\u0646\u0647": 3392, "\u062b\u0648\u0627\u0628": 3393, "\u062f\u0645\u06cc\u062f": 3394, "\u0633\u0646\u062c\u0631": 3395, "\u0628\u062d\u0627\u0631": 3396, "\u062d\u0644\u06cc": 3397, "\u0628\u062f\u0627\u0646\u062f": 3398, "\u0646\u0634\u0627\u0646\u062f\u0647": 3399, "\u0628\u0646\u06af\u0631\u06cc\u062f": 3400, "\u0633\u062e\u0646\u0627\u0646": 3401, "\u062a\u0631\u06cc\u0627\u06a9": 3402, "\u0646\u0648\u0631\u06cc": 3403, "\u0646\u0634\u06af\u0641\u062a": 3404, "\u06af\u0631\u0641\u062a\u0646\u062f": 3405, "\u0645\u0647\u0627\u0631": 3406, "\u062c\u062f\u0644": 3407, "\u0646\u06af\u06cc\u0631\u06cc": 3408, "\u0646\u0628\u0648\u06cc": 3409, "\u0645\u0648\u0631\u06cc": 3410, "\u062c\u0647\u062a": 3411, "\u062f\u0644\u0627\u0631\u0627\u0645": 3412, "\u0647\u062f\u0627\u06cc\u062a": 3413, "\u062d\u0627\u0645\u0644\u0647": 3414, "\u0639\u0637\u0627\u0631": 3415, "\u0632\u0631\u06cc": 3416, "\u0634\u0627\u0639\u0631": 3417, "\u0627\u0628\u0644\u0647\u0627\u0646": 3418, "\u062c\u062d\u06cc\u0645": 3419, "\u0633\u067e\u0631\u062f": 3420, "\u0631\u0645\u062d": 3421, "\u0628\u0631\u062f\u0645": 3422, "\u062d\u0632\u0646": 3423, "\u062d\u0648\u0631\u0627": 3424, "\u062f\u0631\u06cc\u0627\u0633\u062a": 3425, "\u06a9\u0631\u0627\u0646\u0647": 3426, "\u0641\u062a\u0631\u0627\u06a9": 3427, "\u0645\u062d\u0645\u0644": 3428, "\u0628\u0627\u0628\u0644": 3429, "\u0647\u0646\u062f\u0648\u0633\u062a\u0627\u0646": 3430, "\u062e\u0633\u06cc": 3431, "\u06af\u0646\u062c\u06cc": 3432, "\u0633\u0641\u06cc\u0646\u0647": 3433, "\u0628\u0646\u0645\u0627\u06cc": 3434, "\u062f\u0645\u0634": 3435, "\u06a9\u0627\u06cc\u0646\u0627\u062a": 3436, "\u0648\u062f\u0627\u0639": 3437, "\u0647\u0646\u062f\u06cc": 3438, "\u0622\u0634\u062a\u06cc": 3439, "\u0627\u0644\u0646\u0627\u0633": 3440, "\u062e\u0630\u0644\u0627\u0646": 3441, "\u062d\u06cc\u0627\u062a\u06cc": 3442, "\u0645\u062e\u062a\u0627\u0631": 3443, "\u0634\u0647\u0646\u0634\u0627\u0647": 3444, "\u0634\u06a9\u0633\u062a\u06cc": 3445, "\u0633\u0628\u062d\u0647": 3446, "\u0645\u0648\u06cc\u062a": 3447, "\u0631\u0633\u0627\u062f": 3448, "\u062d\u0628\u0644": 3449, "\u0646\u0646\u0647\u062f": 3450, "\u0645\u0646\u0648\u0686\u0647\u0631": 3451, "\u0645\u062a\u0631\u0633": 3452, "\u0639\u0646\u062f\u0644\u06cc\u0628": 3453, "\u0646\u0627\u0635\u0631": 3454, "\u0645\u0633\u0639\u0648\u062f": 3455, "\u0628\u0628\u0631\u06cc\u062f": 3456, "\u0633\u0646\u0628\u0644\u0647": 3457, "\u062c\u0648\u0627\u0646\u0645\u0631\u062f": 3458, "\u0647\u062f\u0647\u062f": 3459, "\u0647\u0627\u0645\u0648\u0646": 3460, "\u0632\u06cc\u0628\u0627\u06cc": 3461, "\u067e\u0627\u06a9\u0634": 3462, "\u0635\u0646\u0648\u0628\u0631": 3463, "\u0645\u0646\u0639\u0645": 3464, "\u063a\u0646\u06cc": 3465, "\u067e\u0646\u062f\u0627\u0634\u062a": 3466, "\u0641\u0631\u0633\u062a\u0627\u062f": 3467, "\u062d\u0642\u062f": 3468, "\u062a\u0646\u0648\u0631": 3469, "\u0637\u0641\u0644\u0627\u0646": 3470, "\u067e\u0627\u0631\u0633": 3471, "\u062f\u0631\u0634\u062a": 3472, "\u0622\u0647\u06cc": 3473, "\u062a\u0628\u0631": 3474, "\u067e\u06cc\u0631\u0648\u0632\u0647": 3475, "\u06af\u0631\u06cc\u062f": 3476, "\u062a\u0627\u0631\u0627\u062c": 3477, "\u062e\u06cc\u0627\u0644\u0634": 3478, "\u0648\u0622\u0646\u06a9\u0647": 3479, "\u0627\u0634\u0639\u0627\u0631": 3480, "\u062d\u0628": 3481, "\u0628\u0631\u06a9\u0634\u062f": 3482, "\u06a9\u0631\u0647": 3483, "\u0628\u0631\u0628\u0646\u062f\u06cc\u0645": 3484, "\u067e\u0627\u06cc\u0646\u062f\u0647": 3485, "\u06a9\u0627\u0641\u0631\u0627\u0646": 3486, "\u0632\u0645\u0633\u062a\u0627\u0646": 3487, "\u0637\u06cc": 3488, "\u0628\u06af\u0631\u06cc\u0633\u062a": 3489, "\u06af\u0630\u0627\u0634\u062a\u06cc": 3490, "\u062f\u0627\u0645\u0646\u0634": 3491, "\u062f\u0648\u0646\u0627\u0646": 3492, "\u0622\u0633\u062a\u0627\u0646\u0647": 3493, "\u0642\u0644\u0628\u06cc": 3494, "\u06af\u0631\u06cc\u0632\u062f": 3495, "\u0633\u0648\u0632\u0627\u0646": 3496, "\u0628\u0645\u0627\u0646\u0627\u062f": 3497, "\u0628\u0644\u0627\u0644": 3498, "\u0633\u0641\u0627\u0644": 3499, "\u062d\u06cc\u0631\u062a": 3500, "\u0647\u0648\u0644": 3501, "\u06a9\u0627\u0648\u0644": 3502, "\u0628\u0627\u063a\u0628\u0627\u0646": 3503, "\u062f\u0633\u062a\u0647": 3504, "\u062d\u0631\u06cc\u0645": 3505, "\u0645\u062c\u0644\u0633\u06cc": 3506, "\u062c\u0628\u0647": 3507, "\u06a9\u0627\u0648": 3508, "\u062e\u0648\u0634\u062a\u0631\u0633\u062a": 3509, "\u067e\u0644\u0627\u0633": 3510, "\u0628\u0648\u0627\u0644\u0639\u062c\u0628": 3511, "\u0628\u0632\u0627\u062f": 3512, "\u0645\u0648\u0644\u0627\u06cc": 3513, "\u0647\u0631\u0686": 3514, "\u0634\u0627\u0647\u0631\u0627\u0647": 3515, "\u0645\u06cc\u0647\u0645\u0627\u0646": 3516, "\u0622\u06af\u0647\u06cc": 3517, "\u062a\u0631\u0645": 3518, "\u062a\u0631\u0633\u06cc": 3519, "\u0645\u0633\u0646\u062f": 3520, "\u0644\u0627\u063a\u0631": 3521, "\u0634\u0633\u062a\u0647": 3522, "\u062c\u0648\u062f\u0634": 3523, "\u062e\u0648\u0634\u0633\u062a": 3524, "\u0646\u06cc\u0644\u0648\u0641\u0631": 3525, "\u0646\u06af\u0634\u062a": 3526, "\u0628\u067e\u0648\u0634": 3527, "\u062e\u0631\u06cc\u062f\u0627\u0631": 3528, "\u0646\u062f\u0648\u062e\u062a\u0647": 3529, "\u0627\u0644\u0645\u0644\u06a9": 3530, "\u0642\u0627\u0646\u0639": 3531, "\u0646\u06af\u0630\u0627\u0631\u062f": 3532, "\u0635\u0648\u062a": 3533, "\u06cc\u0627\u0641\u0647": 3534, "\u0642\u06cc\u0631": 3535, "\u062f\u0644\u062f\u0627\u0631\u06cc": 3536, "\u0634\u0645\u0639\u06cc": 3537, "\u0628\u06af\u0641\u062a\u0645": 3538, "\u0622\u062a\u0634\u0645": 3539, "\u06cc\u06a9\u0633\u0631": 3540, "\u0645\u06a9\u0631\u0645\u062a": 3541, "\u0645\u0627\u062f\u0631\u06cc": 3542, "\u0622\u0647\u0648\u0627\u0646": 3543, "\u0628\u0631\u062c\u06cc\u0633": 3544, "\u0627\u0646\u06af\u0627\u0631": 3545, "\u0639\u0632\u06cc\u0632\u06cc": 3546, "\u062a\u0628\u0631\u06cc\u0632": 3547, "\u0631\u0648\u06cc\u06cc\u0646": 3548, "\u0641\u06a9\u0646": 3549, "\u0646\u0631\u0641\u062a": 3550, "\u0627\u0641\u0633\u0648\u0633": 3551, "\u0646\u062a\u06cc\u062c\u0647": 3552, "\u0633\u0644\u0637\u0646\u062a": 3553, "\u0627\u0631\u0646\u0647": 3554, "\u0628\u062e\u062a\u0634": 3555, "\u0627\u0628\u062a\u062f\u0627": 3556, "\u0627\u062f\u0628\u0627\u0631": 3557, "\u0639\u0644\u0645\u0634": 3558, "\u0686\u0627\u0631\u0645": 3559, "\u0646\u0634\u0646\u0648\u062f": 3560, "\u0627\u0631\u0632\u0627\u0646": 3561, "\u0628\u0644\u0628\u0644\u06cc": 3562, "\u0646\u0627\u0644\u062f": 3563, "\u0628\u062f\u062e\u0648\u0627\u0647": 3564, "\u0628\u06af\u0633\u0633\u062a": 3565, "\u062e\u0631\u0627\u0645": 3566, "\u0639\u0630\u0627\u0631": 3567, "\u0628\u0627\u0644\u0644\u0647": 3568, "\u067e\u06cc\u0634\u062a\u0631": 3569, "\u0628\u0648\u062f\u0634": 3570, "\u067e\u0647\u0644\u0648": 3571, "\u0635\u0648\u0644\u062a": 3572, "\u0646\u0647\u0627\u062f\u0646": 3573, "\u062f\u06cc\u062f\u0645\u06cc": 3574, "\u0648\u0635\u0644\u0634": 3575, "\u0646\u0645\u0648\u062f\u0647": 3576, "\u06af\u0632\u06cc\u0631": 3577, "\u0631\u0633\u06cc\u062f\u06cc": 3578, "\u06af\u0644\u06cc\u0645": 3579, "\u0645\u0631\u0648\u062a": 3580, "\u0645\u062f\u06cc\u062d": 3581, "\u0646\u062c\u0645": 3582, "\u0628\u06a9\u0634\u062a": 3583, "\u062f\u0627\u0631\u0648": 3584, "\u06af\u0630\u0627\u0631\u062f": 3585, "\u06a9\u06cc\u0641": 3586, "\u0634\u0646\u0627\u0633\u0645\u0634": 3587, "\u0646\u0647\u0641\u062a\u0647": 3588, "\u0628\u0631\u062a": 3589, "\u0635\u062f\u0631\u0647": 3590, "\u0644\u0637\u0641\u0634": 3591, "\u06cc\u0627\u0633\u06cc\u0646": 3592, "\u0628\u0645\u0627\u0646": 3593, "\u0635\u0641\u0631": 3594, "\u0637\u06cc\u0631\u0647": 3595, "\u0645\u0631\u062a\u0636\u06cc": 3596, "\u062f\u0627\u0639\u06cc": 3597, "\u0646\u0647\u0627\u0631": 3598, "\u0628\u06cc\u0698\u0646": 3599, "\u0628\u062a\u062e\u0627\u0646\u0647": 3600, "\u0645\u0647\u0631\u0634": 3601, "\u062f\u0631\u062e\u062a\u0627\u0646": 3602, "\u0634\u063a\u0644": 3603, "\u062d\u0633\u0646\u062a": 3604, "\u0645\u0633\u0627\u0632": 3605, "\u06a9\u0648\u0632\u0647": 3606, "\u062a\u0627\u0628\u0627\u0646": 3607, "\u062f\u0627\u0631\u0634": 3608, "\u062f\u0647\u0627\u0646\u0634": 3609, "\u0631\u0639\u0646\u0627\u06cc\u06cc": 3610, "\u0641\u0627\u062e\u062a\u0647": 3611, "\u0639\u0644\u0641": 3612, "\u0634\u0628\u06cc\u062e\u0648\u0646": 3613, "\u0646\u0645\u0631\u0648\u062f": 3614, "\u0646\u0627\u0645\u0648\u0631": 3615, "\u0645\u0642\u0631": 3616, "\u0645\u0637\u0644\u0639": 3617, "\u0637\u0627\u0633": 3618, "\u06a9\u0648\u0628": 3619, "\u0647\u0627\u0631\u0648\u0646": 3620, "\u0645\u062f\u062a\u06cc": 3621, "\u062e\u062f\u0645\u062a\u0634": 3622, "\u0628\u0631\u0628\u0648\u062f": 3623, "\u062d\u0628\u06cc\u0628": 3624, "\u0628\u062f\u0628\u062e\u062a": 3625, "\u0645\u0646\u06cc\u0631": 3626, "\u062c\u0646\u0627\u0628": 3627, "\u062f\u0647\u0644": 3628, "\u06a9\u0634\u06cc\u062f\u0645": 3629, "\u0646\u0648\u0628\u0631": 3630, "\u0646\u0648\u06cc\u0633\u0645": 3631, "\u0686\u0627\u062f\u0631": 3632, "\u0633\u0645\u0648\u0645": 3633, "\u06a9\u0648\u06cc\u0634": 3634, "\u0627\u062d\u062f": 3635, "\u062e\u0648\u0646\u0634": 3636, "\u0627\u062a\u0627\u0628\u06a9": 3637, "\u0642\u0627\u06cc\u0645": 3638, "\u0646\u0627\u06a9\u0633": 3639, "\u0634\u06a9\u06cc\u0628": 3640, "\u0631\u0627\u0646\u06cc": 3641, "\u062c\u0648\u0627\u0647\u0631": 3642, "\u063a\u0630\u0627": 3643, "\u0646\u0647\u0627\u062f\u0646\u062f": 3644, "\u0633\u06cc\u0646": 3645, "\u0642\u0644\u0627\u0634\u06cc": 3646, "\u0648\u0635\u0627\u0644\u0634": 3647, "\u0628\u0646\u0634\u06cc\u0646\u0645": 3648, "\u0628\u06cc\u0627\u06cc\u062f": 3649, "\u0641\u0631\u06cc\u062f\u0648\u0646": 3650, "\u06af\u0648\u06cc\u06cc\u0645": 3651, "\u0646\u06cc\u0645\u06cc": 3652, "\u06a9\u0622\u062a\u0634": 3653, "\u067e\u0627\u06cc\u062f\u0627\u0631": 3654, "\u0647\u0631\u062f\u0645": 3655, "\u062d\u0627\u0633\u062f": 3656, "\u0645\u062c\u0631\u062f": 3657, "\u06a9\u0627\u063a\u0630": 3658, "\u06af\u0631\u0627\u0645\u06cc": 3659, "\u062e\u06cc\u0632\u0627\u0646": 3660, "\u062f\u0631\u0631": 3661, "\u062e\u0627\u0648\u0631": 3662, "\u0631\u0648\u0628\u0647": 3663, "\u0622\u0628\u0633\u062a": 3664, "\u0645\u062d\u062a\u0634\u0645": 3665, "\u0632\u06cc\u0633\u062a": 3666, "\u062d\u0627\u062c": 3667, "\u0622\u0628\u0645": 3668, "\u0627\u0648\u0628\u0627\u0634": 3669, "\u0642\u0644\u0647": 3670, "\u0645\u0628\u062f\u0639": 3671, "\u063a\u0648\u063a\u0627\u06cc": 3672, "\u0633\u062a\u062f": 3673, "\u0628\u0631\u0648\u06cc": 3674, "\u0646\u06cc\u062a": 3675, "\u0645\u062d\u0648": 3676, "\u0645\u06a9\u0631\u0645": 3677, "\u062e\u0627\u06a9\u0645": 3678, "\u062c\u0647\u0627\u0646\u0645": 3679, "\u0627\u0646\u06af\u0634\u062a\u0631\u06cc": 3680, "\u0645\u0639\u0638\u0645": 3681, "\u062e\u062a\u0646": 3682, "\u062d\u0627\u0641\u0638": 3683, "\u062a\u062d\u0633\u06cc\u0646": 3684, "\u0645\u0648\u0642\u0648\u0641": 3685, "\u0628\u06cc\u062f\u0627\u0631\u06cc": 3686, "\u067e\u06cc\u062f\u0627\u0633\u062a": 3687, "\u0646\u0627\u0645\u062f": 3688, "\u062e\u0637\u0627\u06cc\u06cc": 3689, "\u062f\u0631\u0628\u0646\u062f": 3690, "\u0639\u0646\u0648\u0627\u0646": 3691, "\u0648\u0627\u0633\u0637\u0647": 3692, "\u062e\u0646\u06af": 3693, "\u062e\u0644\u0642\u0634": 3694, "\u0628\u0631\u0642\u0639": 3695, "\u0628\u062e\u0641\u062a": 3696, "\u0635\u0641\u0631\u0627": 3697, "\u062e\u0631\u062c": 3698, "\u062f\u0631\u06af\u0630\u0634\u062a": 3699, "\u0645\u0644\u0648\u0644": 3700, "\u0628\u0648\u062d\u0646\u06cc\u0641\u0647": 3701, "\u0628\u0634\u06a9\u0646\u062f": 3702, "\u06af\u0627\u0632": 3703, "\u0635\u0627\u0644\u062d": 3704, "\u0633\u0648\u062f\u06cc": 3705, "\u0628\u0631\u0641\u062a\u06cc": 3706, "\u0645\u0698\u062f\u0647": 3707, "\u0627\u0645\u06cc\u062f\u0645": 3708, "\u062d\u06cc\u0644\u062a": 3709, "\u0645\u0627\u06cc\u062f\u0647": 3710, "\u062e\u0648\u0631\u0646\u062f": 3711, "\u0628\u06cc\u0686\u0627\u0631\u06af\u06cc": 3712, "\u0644\u06a9": 3713, "\u062f\u0631\u0622\u06cc": 3714, "\u0646\u06af\u0647\u062f\u0627\u0631": 3715, "\u0637\u0628\u0639\u0645": 3716, "\u0627\u062c\u0631\u0627\u0645": 3717, "\u0639\u062f\u062f": 3718, "\u0632\u06cc\u0631\u06a9\u0627\u0646": 3719, "\u0642\u0635\u06cc\u062f\u0647": 3720, "\u06af\u0631\u06cc\u0645": 3721, "\u0632\u0648\u0628\u06cc\u0646": 3722, "\u0646\u06cc\u0634\u06a9\u0631": 3723, "\u062a\u06a9\u0628\u0631": 3724, "\u062a\u0631\u0633\u0627": 3725, "\u0634\u0631\u0628": 3726, "\u062e\u0645\u06cc\u062f\u0647": 3727, "\u0639\u0634\u0642\u06cc": 3728, "\u0639\u0644\u0627": 3729, "\u0632\u0645\u0646": 3730, "\u0633\u06cc\u0644\u06cc": 3731, "\u0646\u062e\u0641\u062a": 3732, "\u0645\u0648\u0632\u0648\u0646": 3733, "\u0645\u062c\u0627\u0648\u0631": 3734, "\u0645\u0633\u062e\u0631": 3735, "\u0628\u0631\u06af\u0634\u0627\u062f": 3736, "\u0627\u0646\u0633\u06cc": 3737, "\u06af\u0648\u0634\u0645": 3738, "\u0622\u0648\u06cc\u062e\u062a\u0647": 3739, "\u0646\u06cc\u0631\u0648\u06cc": 3740, "\u062e\u0648\u0628\u0631\u0648\u06cc\u0627\u0646": 3741, "\u0635\u062f\u06cc\u0642": 3742, "\u0642\u0645\u0627\u0631": 3743, "\u0632\u06cc\u0631\u06a9": 3744, "\u0686\u0646\u0628\u0631\u06cc": 3745, "\u062b\u0645": 3746, "\u0646\u0628\u0634\u062a": 3747, "\u0628\u0631\u06af\u06cc\u0631\u062f": 3748, "\u0639\u0646\u0628\u0631\u06cc\u0646": 3749, "\u062e\u0628\u062b": 3750, "\u0634\u0631\u0647": 3751, "\u067e\u0631\u0633\u062a\u0627\u0646": 3752, "\u0645\u0635\u0648\u0631": 3753, "\u0648\u0627": 3754, "\u062b\u0639\u0628\u0627\u0646": 3755, "\u067e\u0631\u06cc\u062f": 3756, "\u062e\u0648\u06cc\u06cc": 3757, "\u062f\u0631\u0622\u06cc\u06cc": 3758, "\u06a9\u0627\u0646\u06cc": 3759, "\u0627\u0632\u0648\u0633\u062a": 3760, "\u0639\u0634\u0642\u0628\u0627\u0632\u06cc": 3761, "\u0631\u063a\u0628\u062a": 3762, "\u0631\u0635\u062f": 3763, "\u062e\u0637\u06cc": 3764, "\u0646\u062e\u0633\u062a\u06cc\u0646": 3765, "\u062d\u0627\u0645\u0644": 3766, "\u0646\u0634\u06cc\u0646\u06cc": 3767, "\u0645\u062e\u0646\u062b": 3768, "\u062a\u0644\u0628\u06cc\u0633": 3769, "\u0646\u06af\u0641\u062a": 3770, "\u0646\u0641\u0631\u0648\u0634\u0645": 3771, "\u0644\u0646\u06af": 3772, "\u0646\u062f\u0627": 3773, "\u0627\u06cc\u0632\u062f\u06cc": 3774, "\u06a9\u06cc\u0645\u06cc\u0627\u06cc": 3775, "\u0628\u0644\u0628\u0644\u0647": 3776, "\u0645\u063a\u0631\u0648\u0631": 3777, "\u06a9\u06cc\u062f": 3778, "\u06a9\u0648\u0631\u06cc": 3779, "\u0642\u0648\u0627\u0645": 3780, "\u062f\u0646\u0628\u0627\u0644": 3781, "\u0628\u0628\u0631\u06cc": 3782, "\u0628\u0633\u0648\u0632": 3783, "\u0642\u062f\u0645\u062a": 3784, "\u06a9\u0646\u0641": 3785, "\u0628\u0644\u0627\u06cc\u06cc": 3786, "\u0645\u0646\u0646\u062f": 3787, "\u0635\u0641\u0627\u06cc": 3788, "\u062f\u062e\u0627\u0646": 3789, "\u062f\u0631\u06af\u06cc\u0631\u0645": 3790, "\u0622\u0646\u0647\u0627": 3791, "\u062f\u0633\u062a\u06af\u06cc\u0631": 3792, "\u062f\u0628\u06cc\u0631": 3793, "\u062d\u0631": 3794, "\u062f\u0698\u0645": 3795, "\u0635\u0628\u062d\u062f\u0645": 3796, "\u0642\u0632\u0644": 3797, "\u0639\u0627\u062f": 3798, "\u0622\u0648\u06cc\u0632": 3799, "\u0645\u0644\u0627": 3800, "\u062f\u0634\u0645\u0646\u0634": 3801, "\u062e\u0635\u0627\u0644": 3802, "\u062a": 3803, "\u0641\u0631\u0627\u063a": 3804, "\u062d\u06cc\u0636": 3805, "\u062a\u0644\u0642\u06cc\u0646": 3806, "\u063a\u0627\u0632\u06cc": 3807, "\u062a\u0628\u0647": 3808, "\u0628\u0631\u0622\u0648\u0631": 3809, "\u06a9\u0627\u062e": 3810, "\u0631\u0646\u062f\u06cc": 3811, "\u067e\u0648\u06cc": 3812, "\u06a9\u0631\u0645\u0627\u0646": 3813, "\u0646\u0627\u0642\u0647": 3814, "\u06af\u0644\u062e\u0646": 3815, "\u0633\u062a\u0627\u0646\u06cc": 3816, "\u06af\u0646\u062c\u0634\u06a9": 3817, "\u0622\u0634\u06cc\u0627\u0646\u0647": 3818, "\u0647\u0631\u06a9\u0633\u06cc": 3819, "\u0628\u06af\u0648\u06cc\u0646\u062f": 3820, "\u0628\u0631\u06cc\u062f\u0646": 3821, "\u0646\u06cc\u0631\u0646\u06af": 3822, "\u062a\u0641\u0633\u06cc\u0631": 3823, "\u06a9\u0627\u0647\u06cc": 3824, "\u0641\u062a\u0648\u062d": 3825, "\u0628\u06cc\u0646\u0634": 3826, "\u062c\u06cc\u0641\u0647": 3827, "\u0647\u0645\u0633\u0627\u06cc\u0647": 3828, "\u0628\u0646\u0634\u0627\u0646\u062f": 3829, "\u0633\u06cc\u0627\u0633\u062a": 3830, "\u0633\u067e\u0646\u062f": 3831, "\u062f\u0631\u0633": 3832, "\u0646\u0645\u0627\u0646\u062f\u0647": 3833, "\u0627\u062e\u0628\u0627\u0631": 3834, "\u06a9\u0631\u0627\u0645\u062a": 3835, "\u0627\u0646\u06cc": 3836, "\u0633\u0648\u0631\u0647": 3837, "\u063a\u0630\u06cc": 3838, "\u062e\u062f\u0627\u0648\u0646\u062f\u06af\u0627\u0631": 3839, "\u062f\u06cc\u0646\u06cc": 3840, "\u0646\u0645\u0627": 3841, "\u0628\u06af\u0631\u062f\u0627\u0646\u06cc": 3842, "\u067e\u0648\u0634\u06cc": 3843, "\u0642\u0644\u0639\u0647": 3844, "\u062f\u063a\u0644": 3845, "\u0645\u0627\u0646\u062f\u06cc": 3846, "\u0634\u0627\u0647\u06cc\u0646": 3847, "\u0631\u0633\u062a\u062e\u06cc\u0632": 3848, "\u0635\u0648\u0631\u062a\u0634": 3849, "\u0686\u0627\u0644\u0627\u06a9": 3850, "\u0634\u06cc\u0628": 3851, "\u0645\u06cc\u0645\u0648\u0646": 3852, "\u0632\u0627\u0647\u062f\u0627\u0646": 3853, "\u067e\u06cc\u0631\u0632\u0646": 3854, "\u062f\u0627\u0646\u0627\u06cc\u06cc": 3855, "\u0646\u0638\u0631\u0634": 3856, "\u062d\u0628\u0633": 3857, "\u0633\u0648\u062e\u062a\u06af\u0627\u0646": 3858, "\u0646\u06cc\u0633\u0627\u0646": 3859, "\u062a\u0648\u062a\u06cc\u0627": 3860, "\u062a\u0648\u0627\u0646\u0627": 3861, "\u0646\u06af\u0641\u062a\u0645": 3862, "\u0628\u0627\u0646\u0648\u0627\u0646": 3863, "\u0628\u0634\u0646\u06cc\u062f": 3864, "\u062e\u0631\u0627\u0645\u0627\u0646": 3865, "\u0636\u0639\u06cc\u0641\u0627\u0646": 3866, "\u062f\u0634\u0648\u0627\u0631": 3867, "\u06af\u0648\u0632\u0646": 3868, "\u0635\u062d\u06cc\u0641\u0647": 3869, "\u0637\u0644\u0628\u06cc": 3870, "\u0637\u0644\u0628\u062f": 3871, "\u0627\u06af\u0631\u0645": 3872, "\u0648\u0632\u0627\u0646": 3873, "\u06a9\u0647\u06a9\u0634\u0627\u0646": 3874, "\u062d\u0627\u062c\u0628": 3875, "\u0646\u062a\u0648\u0627\u0646\u06cc": 3876, "\u06af\u0648\u0627": 3877, "\u06af\u0633\u0633\u062a\u0647": 3878, "\u0628\u0631\u0646\u062e\u0627\u0633\u062a": 3879, "\u0639\u0648\u0646": 3880, "\u067e\u0648\u0631": 3881, "\u062d\u06cc\u0632": 3882, "\u0628\u0645\u06cc\u0631\u0645": 3883, "\u0628\u06cc\u0645\u0627\u0631\u06cc": 3884, "\u0631\u0627\u06cc\u0634": 3885, "\u067e\u0627\u0633\u062e": 3886, "\u0644\u0642\u062f": 3887, "\u0645\u0648\u0636\u0639": 3888, "\u0646\u0633\u062e\u0647": 3889, "\u062f\u0648\u062e\u062a": 3890, "\u0645\u0647\u062a\u0631\u06cc": 3891, "\u0627\u0641\u062a\u062e\u0627\u0631": 3892, "\u063a\u0644\u0627\u0645\u0627\u0646": 3893, "\u0641\u06a9\u0646\u062f\u0647": 3894, "\u0630\u0627\u062a\u0634": 3895, "\u06af\u0644\u0646\u0627\u0631": 3896, "\u0645\u0633": 3897, "\u0628\u0648\u0633\u0645": 3898, "\u0633\u0628\u0644\u062a": 3899, "\u062d\u0627\u06a9\u0645": 3900, "\u0645\u0647\u0627\u0646": 3901, "\u062e\u0634\u0645\u0634": 3902, "\u0631\u0628\u06cc\u0639": 3903, "\u0637\u0631\u0627\u0631": 3904, "\u06a9\u06cc\u0645": 3905, "\u0646\u06cc\u0627\u0645": 3906, "\u06af\u0634\u062a\u0646\u062f": 3907, "\u0627\u0644\u0647\u06cc": 3908, "\u0642\u062f\u0631\u06cc": 3909, "\u0646\u0627\u0631\u0646\u062c": 3910, "\u0644\u06af\u062f": 3911, "\u0631\u0627\u0632\u06cc": 3912, "\u0635\u0646\u0645\u0627": 3913, "\u0632\u0631\u0634": 3914, "\u0627\u0644\u062d\u0645\u062f": 3915, "\u0647\u0646\u062f\u0648": 3916, "\u0634\u0646\u0648\u06cc": 3917, "\u0642\u0648\u0627\u0631\u0647": 3918, "\u0634\u0627\u062f\u0627\u0646": 3919, "\u062c\u0627\u0646\u0648\u0631": 3920, "\u0647\u0631\u06cc\u06a9": 3921, "\u06a9\u0646\u062c\u06cc": 3922, "\u0628\u0627\u0632\u06cc\u0686\u0647": 3923, "\u0648\u0631\u0686\u0647": 3924, "\u062e\u0631\u062f\u0645\u0646\u062f\u06cc": 3925, "\u0647\u062f\u0641": 3926, "\u062f\u0644\u0628\u0646\u062f": 3927, "\u06a9\u06cc\u0647\u0627\u0646": 3928, "\u0633\u0627\u062d\u062a": 3929, "\u0645\u0641\u062e\u0631": 3930, "\u0635\u0648\u0641\u06cc\u0627\u0646": 3931, "\u0627\u0633\u062a\u0648\u0627\u0631": 3932, "\u062c\u0648\u0627\u0646\u0645\u0631\u062f\u06cc": 3933, "\u0639\u0631\u0636\u0647": 3934, "\u0628\u0627\u0632\u0634": 3935, "\u0632\u0622\u0646": 3936, "\u0644\u0642\u0627": 3937, "\u062c\u0644": 3938, "\u062a\u0642\u0648\u06cc": 3939, "\u0634\u06a9\u0646\u06cc": 3940, "\u062c\u0646\u0628": 3941, "\u0647\u06cc\u062c\u0627": 3942, "\u0646\u06af\u0631\u062f\u0645": 3943, "\u06a9\u0622\u0628": 3944, "\u0627\u0633\u062a\u0631": 3945, "\u0628\u0631\u062f\u0627\u0631\u062f": 3946, "\u067e\u0627\u0631\u0633\u06cc": 3947, "\u0628\u06cc\u0646\u0645\u0634": 3948, "\u0645\u0646\u0638\u0648\u0631": 3949, "\u062f\u0631\u0648\u0627\u0632\u0647": 3950, "\u0645\u0639\u0631\u06a9\u0647": 3951, "\u0635\u0627\u0641": 3952, "\u062f\u0627\u062f\u0646\u062f": 3953, "\u0645\u0627\u062c\u0631\u0627": 3954, "\u0646\u0637\u0641\u0647": 3955, "\u062c\u0627\u0645\u06cc": 3956, "\u0628\u0631\u0647\u06cc": 3957, "\u062a\u0641\u0627\u0648\u062a": 3958, "\u0628\u0645\u06cc\u0631": 3959, "\u0622\u0646\u062c\u0627\u0633\u062a": 3960, "\u0686\u0627\u0647\u06cc": 3961, "\u0645\u06cc\u062e\u0627\u0646\u0647": 3962, "\u0628\u06cc\u0634\u06cc": 3963, "\u067e\u0627\u06cc\u06af\u0627\u0647": 3964, "\u062f\u0631\u0646\u062f\u0647": 3965, "\u062f\u0631\u0628\u0633\u062a\u0647": 3966, "\u067e\u06cc\u0634\u0627\u0646\u06cc": 3967, "\u067e\u0631\u0627\u06a9\u0646\u062f\u0647": 3968, "\u062e\u0635\u0645\u0634": 3969, "\u0633\u0631\u06a9\u0634": 3970, "\u0622\u0631\u0627\u06cc\u0634": 3971, "\u0633\u062c\u0627\u062f\u0647": 3972, "\u0648\u0627\u0642\u0639\u0647": 3973, "\u0628\u062e\u0627\u0631": 3974, "\u0628\u06af\u0633\u0644": 3975, "\u0637\u06cc\u0646": 3976, "\u062f\u0644\u0647\u0627\u06cc": 3977, "\u0648\u0627\u062f\u06cc": 3978, "\u0628\u067e\u0630\u06cc\u0631": 3979, "\u062e\u0632\u0631": 3980, "\u0633\u062e\u0631\u0647": 3981, "\u0632\u0627\u062f\u0646": 3982, "\u062a\u0627\u0648\u0627\u0646": 3983, "\u067e\u0646\u0647\u0627\u0646\u06cc": 3984, "\u062d\u06cc\u0648\u0627\u0646\u06cc": 3985, "\u0627\u0645\u0627\u0646\u06cc": 3986, "\u0646\u062c\u0648\u0645": 3987, "\u06a9\u0632\u0627\u0646": 3988, "\u0628\u0631\u06cc\u0632\u062f": 3989, "\u0634\u0647\u0627\u0646": 3990, "\u0627\u0634\u0647\u0628": 3991, "\u0645\u0631\u062a\u0628\u062a": 3992, "\u062d\u0631\u0641\u06cc": 3993, "\u0631\u0646\u062f": 3994, "\u0631\u0628\u0639": 3995, "\u0628\u0627\u0631\u0647\u0627": 3996, "\u062e\u0648\u0634\u0627": 3997, "\u0622\u0647\u0633\u062a\u0647": 3998, "\u0644\u0644\u0647": 3999, "\u06af\u0644\u06cc\u0646": 4000, "\u062f\u0631\u06a9\u0634\u0645": 4001, "\u062f\u0631\u06a9\u0634": 4002, "\u0641\u0644\u06a9\u06cc": 4003, "\u0633\u0647\u06cc": 4004, "\u062e\u0648\u062f\u0634": 4005, "\u0632\u062e\u0645\u06cc": 4006, "\u0686\u0648\u0646\u06a9\u0647": 4007, "\u062f\u0627\u062f\u062a": 4008, "\u0628\u0627\u0632\u0622\u06cc\u06cc": 4009, "\u0634\u06a9\u0631\u0627\u0646\u0647": 4010, "\u0628\u0646\u0647\u062f": 4011, "\u0627\u0698\u062f\u0647\u0627\u06cc": 4012, "\u0634\u0645\u0631\u062f": 4013, "\u062d\u0638": 4014, "\u062f\u0648\u0627\u06cc": 4015, "\u0646\u062f\u0627\u06cc": 4016, "\u0646\u0647\u0627\u062f\u0645": 4017, "\u0628\u062a\u0627\u0641\u062a": 4018, "\u062f\u0627\u0645\u0646\u06cc": 4019, "\u0633\u062a\u0648\u062f\u0647": 4020, "\u0627\u06cc\u0633\u062a\u0627\u062f\u0647": 4021, "\u062c\u0648\u0627\u0644": 4022, "\u062e\u0641\u062a\u0646": 4023, "\u0628\u0627\u063a\u06cc": 4024, "\u0645\u0637\u0628\u062e": 4025, "\u0642\u0647\u0631\u0634": 4026, "\u0628\u0631\u062e\u0627\u0633\u062a\u06cc": 4027, "\u0633\u062a\u06cc\u0632": 4028, "\u0628\u062e\u0648\u0627\u0646\u06cc": 4029, "\u0645\u062c\u0645\u0631": 4030, "\u0627\u0644\u0632\u0645\u0627\u0646": 4031, "\u0647\u0645\u0627\u0645": 4032, "\u0628\u0631\u0648\u0645": 4033, "\u062e\u0631\u062f\u0633\u062a": 4034, "\u0642\u0627\u062f\u0631": 4035, "\u06cc\u0648\u0646\u0633": 4036, "\u0634\u06cc\u0631\u06cc": 4037, "\u06a9\u0634\u0648\u0631\u06cc": 4038, "\u0634\u0647\u067e\u0631": 4039, "\u0646\u0634\u06a9\u0646\u062f": 4040, "\u06a9\u0631\u0645\u0634": 4041, "\u0628\u0631\u062f\u0627\u0634\u062a\u06cc": 4042, "\u0633\u0645\u0646\u062f": 4043, "\u062e\u0631\u0648\u0633": 4044, "\u0639\u0634\u0642\u0645": 4045, "\u06a9\u0627\u0645\u0644": 4046, "\u0633\u0627\u062d\u0644": 4047, "\u0622\u062f\u0645\u06cc\u062a": 4048, "\u062e\u0648\u0646\u062e\u0648\u0627\u0631": 4049, "\u0627\u0646\u062c\u0627\u0645": 4050, "\u0634\u0627\u062f\u0645\u0627\u0646\u06cc": 4051, "\u062e\u0631\u06af\u0648\u0634": 4052, "\u0628\u0627\u0634\u062f\u062a": 4053, "\u062d\u0627\u0634\u0627": 4054, "\u062a\u0648\u0631\u0627\u0646": 4055, "\u0633\u067e\u06cc\u062f\u0647": 4056, "\u0647\u0631\u0686\u0646\u062f": 4057, "\u067e\u0633\u06cc\u0646": 4058, "\u06a9\u0627\u0645\u06cc": 4059, "\u0645\u0645\u062a\u062d\u0646": 4060, "\u0633\u06cc\u0645\u0627": 4061, "\u0645\u062f\u0627\u0631\u0627": 4062, "\u062e\u0648\u0627\u0628\u0645": 4063, "\u0646\u062f\u0627\u0631\u0646\u062f": 4064, "\u0628\u0648\u0639\u0645\u0631\u0627\u0646": 4065, "\u0628\u0627\u0632\u06af\u0634\u062a": 4066, "\u0622\u0648\u0627": 4067, "\u0644\u0639\u06cc\u0646": 4068, "\u0633\u062d\u0631\u06af\u0647": 4069, "\u0647\u0645\u0627\u06cc\u0648\u0646": 4070, "\u0646\u0628\u0634\u062a\u0647": 4071, "\u0627\u062e\u062a\u0631\u06cc": 4072, "\u062a\u0631\u06a9\u0634": 4073, "\u0631\u06cc\u0627\u0636\u062a": 4074, "\u067e\u0631\u06cc\u0634\u0627\u0646\u0645": 4075, "\u0633\u0639\u06cc\u0631": 4076, "\u0628\u0648\u0630\u0631": 4077, "\u0631\u0648\u0632\u0647\u0627": 4078, "\u0646\u062f\u06cc\u062f\u0633\u062a": 4079, "\u0638\u0644\u0645\u0627\u062a": 4080, "\u062a\u0627\u0631\u06cc\u06a9\u06cc": 4081, "\u06a9\u0627\u0631\u062a": 4082, "\u0627\u0632\u06cc\u0631\u0627": 4083, "\u0633\u0631\u0627\u067e\u0631\u062f\u0647": 4084, "\u0645\u0631\u062f\u0627\u0646\u0647": 4085, "\u06af\u06cc\u0627\u0647": 4086, "\u0622\u0631\u0632\u0648\u0633\u062a": 4087, "\u0634\u0639\u0627\u0639": 4088, "\u0645\u06cc\u0646\u0627": 4089, "\u0634\u06a9\u0627\u0641": 4090, "\u0646\u0627\u067e\u0627\u06a9": 4091, "\u0641\u0637\u0646\u062a": 4092, "\u0641\u0631\u0645\u0627\u06cc\u062f": 4093, "\u0628\u062a\u0627": 4094, "\u062d\u06a9\u06cc\u0645\u06cc": 4095, "\u0627\u0644\u0648\u0627\u0646": 4096, "\u062d\u0645\u0627\u06cc\u0644": 4097, "\u0646\u06cc\u0627\u0631\u06cc": 4098, "\u0646\u0642\u0637": 4099, "\u0628\u0633\u0648\u0632\u0645": 4100, "\u0646\u06af\u0630\u0631\u062f": 4101, "\u0628\u062e\u0646\u062f\u062f": 4102, "\u067e\u0634\u06cc\u0645\u0627\u0646\u06cc": 4103, "\u0646\u0638\u0631\u062a": 4104, "\u0641\u0631\u0627\u062a": 4105, "\u062f\u0648\u0627\u062a": 4106, "\u062e\u0648\u06cc\u0634\u062a\u0646\u0645": 4107, "\u067e\u06cc\u0631\u0627\u0646\u0647": 4108, "\u062a\u0627\u0632\u06af\u06cc": 4109, "\u0622\u0633\u0627\u0646\u06cc": 4110, "\u062d\u0631\u0628": 4111, "\u0645\u06a9\u0627\u0631\u0645": 4112, "\u067e\u06cc\u0645\u0627\u0646\u0647": 4113, "\u0631\u0648\u06cc\u062f": 4114, "\u062e\u0637\u0634": 4115, "\u062a\u0628\u062a": 4116, "\u0639\u0627\u0645\u06cc": 4117, "\u062a\u0627\u062e\u062a\u0646": 4118, "\u0639\u0645\u0631\u0627\u0646": 4119, "\u0645\u0637\u0644\u0628": 4120, "\u062a\u0645\u0648\u0632": 4121, "\u0642\u0644\u0645\u0634": 4122, "\u0644\u0639\u0627\u0628": 4123, "\u0633\u0644\u06cc\u0645\u0627\u0646\u06cc": 4124, "\u062c\u0644\u0627\u0644\u062a": 4125, "\u0628\u0631\u0622\u06cc\u06cc": 4126, "\u0634\u0631\u0632\u0647": 4127, "\u0647\u0627\u062a": 4128, "\u062c\u0646\u06cc\u0628\u062a": 4129, "\u0645\u0646\u0632\u0644\u06cc": 4130, "\u062f\u0631\u0646\u062f": 4131, "\u0627\u0633\u0645\u0627": 4132, "\u0627\u0641\u0633\u0631\u062f\u0647": 4133, "\u0645\u0627\u062a": 4134, "\u0633\u067e\u0627\u0631": 4135, "\u062b\u0631\u06cc": 4136, "\u0641\u0632\u0627\u06cc\u062f": 4137, "\u0641\u0633\u0648\u0646": 4138, "\u0645\u0634\u0639\u0644\u0647": 4139, "\u0637\u063a\u0631\u0627\u06cc": 4140, "\u0641\u0648\u062a": 4141, "\u0631\u0641\u06cc\u0642\u0627\u0646": 4142, "\u0637\u0639\u0645": 4143, "\u0634\u0641\u0627\u06cc": 4144, "\u0628\u0644\u062e": 4145, "\u0686\u0644": 4146, "\u062f\u0631\u0648\u062f": 4147, "\u062e\u0648\u0627\u0646\u062f\u0646": 4148, "\u0644\u062d\u0646": 4149, "\u0645\u0648\u0630\u0646": 4150, "\u067e\u0627\u0631\u0633\u0627\u06cc\u0627\u0646": 4151, "\u0645\u0646\u0633\u062a\u06cc": 4152, "\u062e\u0636\u0627\u0628": 4153, "\u0645\u06a9\u0627\u0641\u0627\u062a": 4154, "\u0628\u06cc\u0686\u0627\u0631\u06af\u0627\u0646": 4155, "\u062d\u0636\u0648\u0631": 4156, "\u0644\u0639\u0644\u062a": 4157, "\u0628\u06cc\u0636\u0627": 4158, "\u067e\u0633\u0631\u06cc": 4159, "\u0645\u0639\u062a\u06a9\u0641": 4160, "\u0637\u0645\u0637\u0631\u0627\u0642": 4161, "\u0646\u0634\u06cc\u0646\u0645": 4162, "\u0634\u0627\u06cc\u0633\u062a\u0647": 4163, "\u0628\u0632\u0646\u06cc": 4164, "\u062c\u0644\u0627\u0628": 4165, "\u06af\u0634\u062a\u0646": 4166, "\u0633\u062a\u0627\u0646\u0647": 4167, "\u0647\u0627\u0648\u0646": 4168, "\u0645\u0634\u0627\u0645": 4169, "\u0627\u0628\u0648\u0628\u06a9\u0631": 4170, "\u0628\u0633\u062a\u06cc\u0645": 4171, "\u0637\u0628\u0639\u06cc": 4172, "\u0645\u06a9\u0646\u06cc\u062f": 4173, "\u062f\u062e\u0645\u0647": 4174, "\u067e\u0631\u0645": 4175, "\u062a\u0647\u0645\u062a": 4176, "\u0633\u0648\u062f\u0647": 4177, "\u0631\u062f\u0627": 4178, "\u0634\u0631\u0645\u0633\u0627\u0631": 4179, "\u0645\u06cc\u0631\u0627\u062b": 4180, "\u0686\u0627\u0631\u062f\u0647": 4181, "\u0632\u0646\u062e": 4182, "\u0633\u0647\u0627": 4183, "\u0645\u067e\u0646\u062f\u0627\u0631": 4184, "\u0646\u0633\u0631": 4185, "\u062e\u0631\u0627\u0633": 4186, "\u06a9\u0647\u0633\u0627\u0631": 4187, "\u062f\u06cc\u0631\u06cc\u0646\u0647": 4188, "\u0639\u0628\u06cc\u0631": 4189, "\u0628\u0631\u06af\u0630\u0631": 4190, "\u06af\u0646\u06af": 4191, "\u0633\u0641\u06cc\u062f": 4192, "\u0628\u062e\u0634\u0627\u06cc\u0634": 4193, "\u062f\u06cc\u062f\u0633\u062a": 4194, "\u0646\u0627\u0628\u06cc\u0646\u0627": 4195, "\u0627\u0633\u0628\u0647": 4196, "\u0645\u0646\u0632\u0644\u062a": 4197, "\u0622\u062e\u0631\u0634": 4198, "\u067e\u0633\u0631\u0627": 4199, "\u06af\u0648\u06af\u0631\u062f": 4200, "\u0632\u0631\u062f\u06cc": 4201, "\u0627\u0644\u0633\u0644\u0627\u0645": 4202, "\u062f\u0647\u0627\u0646\u062a": 4203, "\u062e\u0627\u0645\u06cc": 4204, "\u062e\u06cc\u0627\u0644\u06cc": 4205, "\u06af\u0648\u0633\u0641\u0646\u062f": 4206, "\u0646\u0628\u0631\u0645": 4207, "\u0641\u0636\u0648\u0644\u06cc": 4208, "\u0631\u0628\u0627\u06cc\u062f": 4209, "\u062e\u0633\u0631\u0648\u06cc": 4210, "\u0641\u0631\u0633\u0648\u062f\u0647": 4211, "\u062f\u0648\u062e\u062a\u0647": 4212, "\u0627\u0644\u0635\u0628\u0631": 4213, "\u062e\u06cc\u0631\u0648\u0627\u0646": 4214, "\u0628\u0631\u062e\u0648\u0631\u062f\u0627\u0631": 4215, "\u062c\u0647\u0646\u0645": 4216, "\u062f\u0631\u062e\u062a\u06cc": 4217, "\u0628\u0641\u0631\u0645\u0648\u062f": 4218, "\u0627\u06cc\u062b\u0627\u0631": 4219, "\u0645\u062d\u062a\u0633\u0628": 4220, "\u0634\u06a9\u0648\u0647": 4221, "\u06af\u0648\u0627\u0647\u06cc": 4222, "\u062f\u0632\u062f\u06cc": 4223, "\u0628\u0631\u0627\u0641\u0631\u0648\u0632": 4224, "\u0648\u0641\u0627\u062f\u0627\u0631\u06cc": 4225, "\u0646\u06a9\u0631\u062f\u0646\u062f": 4226, "\u0633\u0631\u067e\u0646\u062c\u0647": 4227, "\u0637\u0644\u0628\u062a": 4228, "\u062d\u0645\u062f": 4229, "\u0646\u0628\u0646\u062f\u062f": 4230,
[...]
